0001011011000
0101010111100
0110011110110
0110111010000
0111010111011
0111110110111
0000010100000
0000111101000
0001011001000
0011110110100
0110110101000
1000010111111
0000010111101
0001010101001
0010011000110
0010111001000
0110010010100
0110110100100
0000011100101
0011010110010
0100110110100
0101111001000
0001110110010
0011111001111
0101111000100
0110110111011
0111110101101
1000011000101
0000010110000
0000110000000
0010010111000
0010110101011
0110010111110
0110110111001
0000011011001
0001110110011
0010110100111
0100110000110
0110010001011
0001010110110
0010110111011
0100111001000
0101010111010
0101110110111
0110110110100
1000010111101
0000011001110
0000111011101
0100010110101
0101011000101
0000111000010
0001111011010
0010011100101
0011010101101
0110010101001
0010011100001
0011111011001
0100011000001
1000110010000
0000110110001
0011110100010
0100110100110
0101011010010
0110011010000
0110111000110
1000010111100
0010100110111
0100111000010
0101111001101
0110010011100
0110110111001
0111010110101
0111110100100
1000010100101
0000100110100
0001001010011
0001111001010
0100111010000
0101100110101
0110100111010
0111011100101
0111110101000
0000011001010
0001001000101
0010110111100
0100110001101
0101011001101
0101110100100
0110010101101
0110111001000
0111010111101
1000011001001
0000110110011
0010010110000
0010111001110
0011010100010
0100010110010
0000111000100
0001010100001
0101110101001
0110010100110
0110111000111
0001011000001
0010010101011
0010110010100
0101110010001
0111010110010
0100110110000
0101010111101
1000010111100
0000011100010
0000111001001
0001111010111
0010110101000
1000110101110
0010001000011
0100110111100
0101010110110
1000010100111
0111010111010
1000110111000
0000011000100
0000111000001
0001111000100
0010010110100
0011110110100
0100011000001
0101001011000
1000110101001
0101011001011
0101111000111
0111010101100
0111110010101
1000010111110
0001010100011
0010010110111
0101011001101
0110010100101
0010011000011
0010110100100
0101011000000
0101110101011
0110111001000
0111110010111
0000011011100
0000111000001
0001011000010
0100010101000
0101110101010
0101111001100
0111110011011
1000110111011
0000010111011
0000101000011
0011110111001
0110110100001
0000011011111
0010011010101
0010110010111
0111010110111
1000110100101
0001010001010
0001110011000
0010011010001
0011110100010
0001111010010
0010010111100
0010110110101
0111010100110
0000011001110
0001011000110
0001110110011
0010011011110
0011110011100
1000010111000
1000110110100
0000010111110
0001010110111
0001110001001
0011010100011
0101010110111
0000001001010
0010100111001
0101010111011
0110010111001
0110110101001
0111010110000
0011110110011
0101011011000
0111110101111
1000011010111
0000001001111
0001101010110
0010011000000
0010111100111
0101010110000
0101110111100
0110101010000
0111010110001
0000010111101
0001010110010
0011110110101
0101010010100
0111010101101
0000010001001
0000110011011
0001110111100
0010110001000
0100010100011
0100110101010
0000010101001
0000110001011
0010010100011
0010110011010
0011010011011
0100010101010
