0001011011100
0001111011011
0010011011111
0010111011101
0111111001010
1000110101001
0000010101010
0000110110111
0001011011010
0001110110111
0010011011111
0010111001010
0100011000000
0101001001011
0101111011010
0111011000000
1000101001111
0111010111100
1000110110000
0000011000001
0010011100110
0011011010001
0011111000101
0111010110111
0001001000100
0010011011001
0010110100101
0101010101110
0000000110100
0010010110100
0100101000110
0101000111010
0110100110101
0111011001101
0111110110101
0001110101110
0010010100010
0010111101011
0101110111000
0110011010110
0011011000011
0011111010000
0100110101000
0001110111110
0010111011000
0110010010100
0000111111100
0001011101001
1000011000111
1000110110101
0000010111111
0001010100000
0001100101101
0010101001000
0011010111000
0110000101110
0110110111101
1000011000110
0000011001110
0010011001100
0010110101000
0011010100101
0100111001000
0000110110011
0001010100111
0101010110101
0001010110100
0011110110111
0111011001010
0111111000111
1000011001110
0001011010001
0010010011101
0111111001011
1000110110101
0000011001101
0000110111000
0010011001110
0010110101101
0011111001101
0101111000010
0110000111111
0111101011011
1000011000110
0000010111000
0001111000001
0010010101010
0010110101011
0011110110101
0100110101010
0111011001101
0001011001001
0010011000011
0010111001001
0110010110111
0000111001000
0010011000101
0010111100010
0100011000011
0111011000010
1000010111010
1000111000001
0000011010001
0000111000100
0010111010100
0111010110000
0000110100010
0001010111101
0001110010000
0010011011010
0010111000110
0011011000101
0100010001010
0000010110011
0000110101010
0001011000110
0001110001110
0011011000000
0000010111001
0000111011101
0001111001010
0010010010011
0011110110011
0110010010010
0111010111011
0001010111100
0010111011110
0101010110101
0101110101001
0110110110011
0000011010010
0010111010110
0110101011110
0100110111011
0101010101100
0101110011111
0110010110111
0110110111010
0111010111011
1000010011000
0000110110000
0010011101101
0100010100111
0100111001111
0111110111000
0000111110101
0001010111011
0010011010100
0101011001011
0101111000101
0110110011011
0111010111101
0101111001000
0111111000101
0001011010001
0101011001010
0110110100010
0111110111001
0000010100111
0000110000011
0010111000011
0100110111010
0110010101001
0000111001000
0010010111100
0100010110001
0100110101110
0110011100011
0000010000000
0001011001110
0010011000000
0010110110110
0011010100101
0011110011010
0000010100011
0001110100111
0010110111000
0100111000100
0110010111001
0110110111000
0000000101010
0011010100110
0011111010110
0111011000001
0001011010110
0010011011110
0011111001110
0100010101010
0101111010000
0110110110101
0111111001000
0000011001011
0001011001000
0010111010110
0011110101011
0100111000010
0101111011000
0000011001010
0000110100011
0001000111010
0010110010110
0100010010000
0100110111111
0101111000100
0110111001100
1000011010011
0001011011001
0101011000110
0110011000110
0110111001010
1000010101111
0000111010011
0001011001010
0011111001101
0110110110001
0111111001100
