0000011000100
0000111010111
0001111011011
0011111011011
0100111001011
0110111010011
0001110100101
0010111100001
0011011000110
0110010110000
0000110111111
0010011001001
0010111000011
0100011010000
0101000111001
0110000110011
0111010111111
0111101001000
0000110111100
0011110110101
0100010110110
0111011010001
1000010110101
0001111001111
0010011001100
0010111010111
0011111001000
0111010111001
0000111001111
0010011000011
0110110111100
0111010101100
0001010101011
0001110100101
0010111111010
0101010101011
0101110101010
0111111001110
0001011000100
0110111000101
0000011001111
0000110111010
0001111011100
0010110111000
0101010111101
0110010101101
0110110111000
0000011011101
0001011001001
0010100110110
0100011000010
0110011001101
0111011001100
1000011001000
0000011011011
0010110000010
0100110101110
0110011000011
0000011001000
0000111000001
0010011000111
0010110101010
0100110110100
0000011001010
0001111000000
0010010000000
0010110001110
0011010011111
0000010110100
0100010100110
0110010110100
0110111001111
0001111010011
0011111010010
0110111000100
0111111011011
1000111000001
0000010010101
0001010111110
0001110110111
0010011000011
0011110110100
0110010111101
0000011000101
0000111010100
0001011001011
0001111001101
0010111011000
0011110110101
0010111111101
0110000011110
0110100110001
1000110110000
0010011111000
0010110100110
0100011000011
0100111001111
0110011010011
0001000111111
0001111010001
0010010111111
0010110111101
0011011011000
0011111010000
0100011010011
0100110111001
0110000101110
0110101000001
1000110101111
0001010101100
0001100111001
0010111000110
0100100110010
0110111001000
0100111010010
0101011001110
0110011011010
0110110111100
1000011001000
0000011010101
0000110111000
0001111000110
0100011001110
0100100110011
0101000111011
0111010101100
0000011010111
0010011011100
0010110101111
0011011000011
0011111011000
0111111000001
1000110110001
0000110111101
0010010101011
0010111100001
0100110101111
0101110011111
0111010111101
0101010100101
0101110100000
0110010111100
0111010100110
0111110001000
1000010010110
0000111000001
0001010011111
0101010011100
0000010011101
0000101000010
0001110111001
0010011011110
0010111000110
0011110110111
0110111011001
0000110100000
0001111001111
0010111000001
0011010101000
0100111010010
0101110110100
0110110101011
0000010011100
0001110101000
0010010101110
0010110011100
0100010101111
0100110110001
0000010100010
0000110100111
0010011001100
0010110111011
0011111011000
0100011000000
0111010101000
0010011100110
0011011001100
0110110111110
0111000111011
0111111010101
0001011000100
0010010001011
0011011001101
0011111101101
0101111001000
0110111001110
0111111000010
1000111000100
0000011000100
0001010100111
0011111001101
1000011000000
0001100100100
0101010100101
0101111010110
0110011001101
0110111010101
0111111011011
1000011000111
0000110110011
0010100111100
0011111010000
0100010111100
0101000011010
0111011000010
0111110101111
1000011010001
0111010110111
0011110111010
0101011000001
0110111100011
1000001000101
0001011000000
0101111001001
0110011000010
0110110111100
