0100110111111
0101110111011
0110111000010
0111011001011
1000010111110
0000010110011
0000110101100
0001110111001
0010011010000
0010111001000
0100011100010
0101000100011
0110111001100
0000111100010
0010011100101
0110011000001
0111011001010
0000011010000
0001011010111
0010011000100
0010110011110
0101111011010
0110011000110
0110111000110
0000011011010
0000100101111
0001111010010
0010110110011
0111000100110
0111100100101
1000000100111
0000011010010
0000111001111
0001010000000
0001111010001
1000011000011
0000010110011
0000110111001
0100010110101
0110111011000
0000011010110
0001110111011
0010011011001
0010111010000
0011111100101
0100111000000
1000111000001
0000111010000
0010010110111
0011011000010
0110011000001
0111111100100
0001011001110
0100011010000
0101111011000
0111011000110
1000011000101
0001011011101
0001111000110
0101111011010
0111011001100
0000000000001
0000111011011
0011111011000
1000110111001
0001011011010
0010011011110
0011111010101
0101111010000
0111011001001
0000010110001
0001011010101
0011110111010
0100111011011
0110011001101
0001110111111
0010010101111
0010110000100
0100111000001
0000011001110
0001011001010
0111110111111
0001010100110
0011011000100
0011111000111
0101010110011
0000111011001
0001111001110
0010011000011
0011111010010
0100011010010
0100100101110
1000000100100
0001010111100
0010011110110
0011011001111
0100011001001
0111110111000
0110011001011
1000011001000
0000010100011
0000111011110
0001110110001
0010111001100
0011011000011
0110011011101
0110111010001
0111000010101
0111100011111
0011011001110
0011111010100
0101011001000
0111111100100
0000010100011
0010010100101
0010110101010
0100111000110
0100111000001
0101011000010
0110010110001
0110111011010
0111110111001
0000110111101
0101011010000
0101111001111
0110010111110
0110111001101
0111011000011
1000011011110
0000011101100
0000111001010
0001111010010
0100010111000
0110011001001
1000011010110
0010011100010
0110011011000
0110111000110
0111111001101
0011011001001
0011111011011
0101100010111
0111110111001
0000110111110
0001011011101
0010110010000
0100111010110
0101011011000
0101111001111
0000011010111
0000111001111
0001111000101
0011011010101
0111011001110
1000111010000
0000011011100
0000110101100
0001111011010
0011011001110
0100010111110
0101111001010
0000011101010
0001000101001
0010010111010
0010111000001
0100011000101
0100111011100
0110000101011
0110100100000
0111111010010
1000111001000
0001010110001
0101011001100
0110110111101
0000011100111
0000111001101
0010110110111
0010010111000
0010111101010
0101011001011
0101111001111
0111111000111
1000111000011
0001010111100
0010011000111
1000011000110
0001111011100
0010111110101
0101000101011
0110000100010
0110100010111
0111011010011
0111111011100
1000111001001
0010111011010
0101011001010
0110011001010
0111111001100
0000010110100
0000100100001
0001011011001
0010011000010
0011011011010
0011111001110
0100011011110
0101100101000
0110111100011
0111011010110
1000100111000
0000011000111
0001000100100
0010011011110
0010110010111
0011111000010
0101011011101
0101111011010
