0000111010000
0001111001101
0011110100010
0100111010010
0110100101100
1000110010101
0001010011100
0101010101000
0101110111101
0110011010100
0111010011010
0111110100100
0000011001000
0010110110000
0011110010110
0100011010110
0100111010100
0101111011011
0110111001111
0001000110101
0001111001111
0010011000000
0100110111010
0101011011001
0111110101100
1000001000100
0001010111010
0001110101001
0010010101010
0011010011001
0011110010100
0111010110001
0111111000001
0000010100010
0001010010111
0001110111001
0101010110001
0110010101000
0110110100111
0000011011101
0001101001001
0010101010111
0101000111100
0110000111011
0110111000100
0111011010110
0010111010110
0011110111000
0111111010100
1000110000011
0001000110111
0010110111000
0101001001101
0111001000101
0000001010111
0101010010110
0101100111001
0000101010010
0001000111011
0001111000001
0100111000100
0110110111010
0100110101111
0101010101000
0101111010000
0110010100011
0110110101101
0111110100110
0000010010100
0000110001101
0001110011101
0010110010000
0100111000100
0110110101001
0001110110110
0100111001111
0101010101100
0101110111011
0111010100011
0000010111111
0001010100010
0010010001110
0010110111000
0100101001000
0101101010101
0110110110100
0000011111000
0001011001011
0001111101000
0011010011111
0101010110001
0101110110010
0000010111110
0010110000000
0101010110000
0101110111011
0110010100101
0000010110110
0001010011101
0100110100001
0110011000001
0110110110110
1000010011010
0001011001000
0001111001110
0010010101011
0100010100011
0110110111000
0111111000001
0000011001001
0001111000000
0011110101011
0100010110000
0100111011001
1000010110001
0001111000000
0101011001011
0111010100001
1000010111100
0001111000110
0010111000101
0101110101000
0110100111001
0111010111011
1000010110100
1000101001101
0000111000000
0010010001010
0010110111011
0100111010011
0110010111010
0111010101101
0001001000010
0001110110111
0100110110001
0110000111110
0110100101011
0111010111011
0111110101001
0000110000001
0101110110010
0110011000100
0110110100011
0001010101111
0100010110011
0110111001111
1000110011100
0000110011011
0110010100100
0101111110001
0110011010101
0111110110011
1000010101100
0000011011001
0000111011011
0010011000101
0010111001001
0111110101010
1000110011010
0010110111101
0101110101101
0110010111001
0000010100010
0000110010110
0001010100000
0010010011101
0010110001110
0011010011100
0011110100000
0100010001100
0000011000111
0010110110001
0011010101000
1000010101101
0000011111000
0001111100001
0011011010011
1000011001100
1000110000101
0000011001110
0010111011000
0110010111101
0110111101010
0111010100010
0000111000011
0010010011011
0101011001011
0101110011110
0111010101111
0000110111111
0001101001101
0101010101110
0101110110010
0111010100111
0111111001010
1000010010111
0000111000001
0010110101011
0101110100011
0110110101110
0010111100110
0011010100011
0110100101100
0001010101000
0001111011000
0100010100100
0101010111100
0101110110000
1000011000100
0000010000001
0001011001110
0001110100001
0010010010101
0010110101011
0100110100001
0110010101010
