0010011011110
0100110101100
0101010100010
0101110100011
0111110011111
0000011000011
0000111010100
0001111010111
0010011101010
0010111000001
0011110111000
0110111000011
0111011000010
0000110110101
0001011000011
0101011010000
0110011000101
0110111010100
0111010110001
0100110101100
0101111010000
0110011100001
0111011001001
1000010011011
0000010001010
0000110011011
0001001000110
0001111100101
0010011010011
0010110101010
0011110111100
0100011000100
0100110101111
0101000110011
0110111001010
0101010001111
0101110111001
0110011000000
0110110011000
1000010100010
0001011001010
0010110101011
0100110110110
0110110111101
0000010010011
0001010111011
0001110110011
0100010011111
0101011010111
0110011001011
0010111011001
0100111010001
0111111010111
1000111000111
0010011011110
0010110111111
0101110100111
0110010111101
0111010101000
0001010111101
0001111000000
0100100110110
0101011000101
0101101000011
0110000111100
0001010111100
0001110111111
0101010101111
0111110111010
0000111101100
0010010011100
0010111110011
0011011000000
0111010111011
0001011011100
0001101001111
0010111001001
0100111001011
0111110110001
0010011001001
0010110111111
0101110111110
0110011000101
0001011001101
0010000000101
0010111100001
0011110111001
0101011000011
0101110110101
0000011001100
0010110110101
0100011011001
1000010110001
0000010100101
0000110101010
0001110110101
0010010110111
0010111000101
0011010111011
0011111000000
0100011000011
0111010111111
1000010100100
0001011100001
0001111010011
0010010110111
0011110111111
0100011000110
1000011000111
1000110011110
0000111011100
0001111101100
0010111100101
0100111011110
1000110110110
0000110111000
0001010110011
0110011000010
0110111001100
0001111010011
0011111011010
0111011100100
0111111101100
1000110100100
0000111001110
0001011001001
0010100111110
0101011001110
0110010101010
0111111000011
0000111011010
0001011011001
0001111011100
0010011001101
0010111001100
0011010111100
0100011001011
0111111010011
0000010000111
0001110000000
0010010101000
0010110010010
0011010101101
0011110100111
0100010111101
0110010110111
0010111010100
0101110111001
0110111000110
0111110111111
0000010110111
0000110101000
0010111001010
0100110111011
0110111010010
0000010101001
0000110101110
0001111000101
0010011011000
0010111010010
0100010101111
0000011000010
0010011000100
0100111000010
0101111000001
0110011010001
0000010111010
0000111000000
0011111001100
0101001000001
0110100110100
0000011010010
0001110110011
0011010011110
0011111000111
0110011011100
0001111011001
0010010010101
0011010111010
0101111001101
0111111001100
0000011100111
0010111101001
0011011001110
0110000101111
0111011011001
0111100111111
0000011000000
0001011011001
0011110110011
0110011000100
0001011001011
0001111000000
0010011011100
0110111000001
0001011011100
0100011010110
0101110100110
0110111000100
0111111000010
1000010100101
0000110111111
0100010111100
0101010110111
0110011001001
0000010110100
0010011100011
0010110000111
0101010101100
0000010110111
0001011010111
0010011010111
0010110111101
0011011000001
0000111001001
0110111000100
