0000111001011
0001011000101
0001111010111
1000110100110
0000011000011
0010011001001
0011110111111
0100110110110
0111110110100
0001111000101
0010110101001
0100110111110
1000110101100
0001111010011
0010011000100
0010111011111
0110010111100
1000110111011
0000011001111
0010011110101
0011110111111
0111010011100
0000010110111
0000110010110
0010110000101
0110010100110
0000110110001
0010010100000
0101110101000
0110010111010
0111110100111
0000011101110
0001011010111
0011110011100
1000110011001
0001001001110
0001111000100
0100110101110
0110110111001
0111111001011
1000101000101
0000010000111
0000110101001
0001110111010
0010111000010
0000010111101
0010010110110
0010110010100
0100111010000
0110011000101
0111010110011
0000010110101
0000110011011
0001010011001
0100111001001
0110010110100
0000111100110
0010011100010
0010110110101
0011010010110
0101111010010
0111011000011
0000111000001
0001010111010
0010011010011
0100010110000
0101011010001
0111111001000
1000010101000
0001011001000
0010011100001
0010111001001
0011011000110
0101111000011
0110110101011
0001010111111
0001110111110
0011010101100
0011110101110
0101010000100
0000101011010
0001111000111
0010011001100
0101110111000
0110011000001
0000011011111
0000111010011
0001111010011
0011110111100
0100010111010
0100111000000
0101100111101
0110011001010
0010011001100
0100111000111
0101011010110
0101111000100
1000010100111
1000110101111
0000011000101
0010010110101
0010111100100
0101111000011
0110010110011
0111010111100
0000110011101
0010111101001
0100010110100
0100110110011
0101111001001
0111010100101
0000010110010
0011010101110
0101010101100
0000111000100
0010011011110
0111011000101
1000010110100
0010101010110
0101010100011
0111011011011
0111110101011
1000010100110
0010111001100
0110110111010
0001111010011
0011011000001
0101011110011
0110111001110
1000010101101
0000011100011
0011110111001
0101111010000
0110110100001
0111010101100
0000010100101
0000110010000
0010111010110
0100010100010
0100110111111
0101110111011
0001111001110
0010111010101
0011010101001
0100110111010
0000010110010
0001011000111
0001111010011
0010011010011
0010110101111
0110010101111
0110111000000
0000010000000
0000110101001
0010011000000
0010110010100
0011110101100
0100010111110
0100110111011
0001011001001
0010011011000
0010110101101
0011111000011
0110010100000
0110110100101
0001011000101
0001110111100
0010010111010
0010111001101
0011010010111
0100010100110
0111111001110
1000110111001
0000011100011
0000111001010
0001011010000
0010111101110
0011110111110
0100011000110
0101010100110
0101111000001
0110111000100
0000010001101
0010011011101
0010110010110
0100010101100
0100111010001
0111010100111
0100111001010
0101011000011
0101110011011
0110010010001
0110110100001
1000010010001
0001111011000
0010011100111
0010111010010
0011110110010
0101111001011
0111110111101
1000111000000
0010111100001
0101011000110
0110111010110
0111011000001
0111110011000
0001011000000
0001111001000
0101010101111
0101111000000
0110110111100
0000110111110
0001011001010
0010110101011
0110110101110
0111110110110
