0000010100100
0000111001011
0010011001000
0010111001001
0011011000000
0101100110111
0111011010000
0000111010110
0011111000111
0100010111001
0100111001101
0101111001111
0000010111001
0001111011111
0011100110011
0110011000010
0110111001110
0000011011111
0001101000100
0010010110100
0010110110101
0100111001101
0110101000011
0111111010011
0001010100100
0010010101000
0101111010101
0000111001001
0100010110111
0100111001111
0101111000110
0010010100101
0100111010010
0101010110001
0101110110111
0111111001000
0000011000110
0001111100001
0010000110100
0010111101101
0100011000011
0100111000000
0110011000110
0110110111110
0111000011011
0111100101000
0010011010100
1000110011111
0000010110001
0000111011010
0001111011100
0010011001100
0010111001100
0011111001111
0111010110111
0000011001000
0000110000000
0001111001010
0010010101110
0010110101111
0011011010010
0011111000001
0100010111101
0100110110000
0111011000000
1000010101111
0000110011100
0001011001101
0011011010000
0011111100000
0100011000001
0101011010110
0111010111000
0000100101110
0001111101001
0010111100000
0101010111100
0101111011000
0000011001101
0000111010100
0001001000011
0001111010100
0010111010000
0110011001001
0000111011001
0011111001001
0101011000100
0110011000110
0110110100110
0001011001010
0010011101000
0011010111110
0101011001100
0111111001000
0000110100101
0100110110111
0101110111010
0110011000110
0000010110010
0000111001110
0001111000110
0010011000111
0010110011111
0110010101101
0100111011101
0110111010000
0111110110011
1000011000001
0001010111111
0101010111001
0101110110101
0111011001001
1000011000101
0000011000011
0000110111010
0001011001000
0100101001100
0101011010000
0101100110111
0111000110011
0111100101010
0000011011010
0001010111101
0001110011010
0010010110111
0010111010111
0011010110011
0011110111110
1000110101100
0011111001011
0100111011000
0101110111101
0000010111101
0001011001011
0001110101011
0011010111010
0011110111100
0110011000010
0000110010110
0001010101111
0010111011001
0110010110100
0110110111011
0010100110001
0110011010101
0110110101010
0111111000001
0110011010000
0111110111010
1000010111010
0000010110110
0001111001111
0010111010111
0011110111001
0100111010000
1000111000010
0001110111111
0010010110110
0010111000001
0110111001000
0111010111000
0000011001100
0000100100011
0001001001000
0010111001010
0110001001100
1000101000011
0001111011101
0100011000100
0111011000001
0010010111110
0011011011000
0011111001011
0100010110100
0100100100111
0110000100001
0111110111101
0000010101001
0000110000100
0010011000101
0010110011101
0101111000111
0001011011111
0010111011000
0011110110110
0101111010110
0110011001111
0010111100111
0111110111111
1000111001100
0000011100100
0001011010100
0011010111101
0101010101101
1000111011010
0000011001101
0001111010001
0100111001000
1000010101111
0001111010111
0010111011011
0100010110101
0110111010001
0111111001010
0000011101100
0010110100101
0110011001101
0110110111110
0111011000000
0000011001110
0001010111000
0001110000110
0010011100101
0011110111101
0110110101110
0111111001000
