0000010100100
0000111000010
0001010101000
0110010100100
0010111100001
0011010111101
0110000010000
0110100101101
0111110111010
1000110100100
0000011000000
0001111001111
0010011001111
0011010111101
0011110111101
1000110100101
0010100110010
0110010110100
0110110101011
0010010111001
0010110011111
0100000110101
0101100101111
0110011001011
0110100111111
1000101000110
0000010110001
0001011001010
0101010110000
0101110011010
0110100101011
0000010111010
0001110101010
0010000101010
0101111010010
0110000011111
1000010101010
0100100101011
0101011000011
0110000110100
0111100110111
1000010110110
0000110110010
0101110101010
0110111001100
0111110111100
0001010110110
0010011000000
0010110110100
0011101000001
0100100100100
0101001010001
0111111000001
0000101011011
0001010100111
0010100100101
0101010010011
0110110110110
0100110110010
0101010101111
0111110111011
1000110111100
0000010100111
0001111011001
0011110101111
0100010110001
0100110110111
0101011000010
0000011010110
0000110110110
0001110111011
0010111001111
0011110011001
1000110011100
0000110110101
0001110100101
0101011001001
0111111001110
1000011001001
0000011000100
0001011000111
0001111001110
0010010111100
0011111000011
0100011000111
0101000111000
0110000100001
0111010101000
0111111000001
1000011000111
0010011010100
0010111100011
0011010110111
0110011001111
0111111000111
1000011001010
0001010000000
0110011000111
0110111000011
0101010110011
0111110111010
1000110010010
0000001000100
0001010011101
0101111000111
0111010110011
0111110110010
1000011100101
0000010000000
0000110101001
0010010011010
0010110000010
0110010101110
0100110111011
0110011011111
0111010100110
1000011001110
0000000101010
0001111100001
0011001000010
0100111000101
0101100110000
0110100110010
0010110101001
0100110101100
0110010100000
0110110101111
0101010101000
0110110101100
0111010101100
1000010110111
0001111000101
0010010111011
0010111001101
0100010100000
0100111000000
0101111000001
0000110100111
0001110100000
0010100111011
0110010101001
0110111010001
0010011010100
0010111011001
0100100100101
0101010101111
0110100110111
0111010101110
1000001001000
0000111010100
0010011001001
0010110111011
0011110111101
0101110111011
0110000100110
0111010110011
0111110101110
0001111010010
0010011001111
0010111011101
0011010101100
0011110110000
0110111010111
0000010111001
0000110110011
0100010110111
0101100110000
0110111001011
0010010110110
0010111001000
0101110011111
0000010001110
0000110100101
0001010101110
0010110110001
0101111001101
0110110111011
0000111000011
0001101011111
0011011000110
0110000011111
0111100100111
0000000100100
0010010111000
0010110111101
0110010101110
0110111001010
0111110110110
1000010111110
0001110100111
0011010011001
0011110110111
0100010010111
1000110110100
0100110100110
0101010101010
0101110100011
0110011000010
0110110101100
0000010011011
0001011011000
0010010111100
0010110000010
0110010011100
0110110101111
0010111100000
0011010100000
0100111000111
0111111010110
1000110110000
0000010110101
0010011000110
0010111000110
0101111001001
0110011011010
1000101001111
