0000010100011
0000111010011
0001110101101
0010010011110
0010110101100
0011011001110
0011110100110
0110010110011
0000010111011
0000111000101
0001110111110
0010010101001
0010111011001
0011111001101
1000010101110
0000111010001
0010011011111
0010111000100
0011111010100
0101110111110
0111010110010
0111111000010
0001110110111
0011111010100
0111010011011
0111111010101
0000110111101
0001011000100
0001110111101
0011011001011
0100010110100
0110011001111
0000110111111
0001010110110
0010110110010
0110110101010
0001011101110
0010111100110
0110011000011
0110111000111
0111010000000
0000011011010
0100010110001
0101011000011
0110011000000
0110111001111
0001111101101
0011111011110
0100110100000
0101111001000
0110011000111
0000010110110
0010010110001
0010110010001
0011010110100
1000110111000
0000010100110
0001011000111
0011111000111
0101010101000
0000011001011
0000111010011
0010110100110
0011010110011
0011111000000
0100110111000
0101110111110
0110111001010
0000011011011
0000110011101
0010010110100
0100010110111
0100110010100
0111010101100
0111110111110
0000011111000
0000111100100
0010111000111
1000110110010
0000111000101
0011101000011
0101110110110
0110011001001
0001011011100
0010011111101
0111111000011
1000111001010
0000011000100
0010111010111
0101010110101
0001011000010
0001110110101
0010100111011
0110011011000
0110111000001
0000010011001
0000111000010
0001011000110
0001110110100
0011010100010
0011110101000
0100010110100
0110110110111
1000010110010
0000011001110
0001011001011
0001111001110
0010010101100
0010111000111
0011011000111
0100111011110
0110111011011
0111011000010
0010000111101
0101110110101
0110010111000
1000010110010
0010011011101
0101010111111
0101110101100
0110111001001
0111110110011
0000100111000
0010011000100
0011111001011
0100011000010
0101100100011
0110111000101
1000101100100
0000111011011
0010011010000
0010110101001
0100110111011
0000110010110
0100011001101
0101011000100
0111010111010
1000011000011
0000011000111
0000111001000
0001110101101
0010111001111
0100010110001
0000000001010
0001111100100
0010010011001
0010110110100
0100011001111
0100110101101
0101110111100
1000110101100
0000111000000
0001011001001
0001111001110
0010011100000
0100011000110
0101101000010
0111110110011
0001010110010
0010010111001
0010110101011
0011010100000
0011110111100
0101111001000
0111110110000
1000110110101
0001010010000
0011111000010
1000010100001
0001011000111
0001111001011
0010010110011
0011111000000
0110010111000
0011111000101
0101011000000
0101110101111
1000010110011
0001010101100
0010110110001
0110111001100
0000010111100
0110010011001
0000010110011
0000110010010
0010111000001
0100110000111
0110010101010
0110111001001
0000101000101
0010010110100
0010110110001
0011010110001
0101111010010
0111111000100
0010011001011
0101010100001
0101110011001
0110111010001
0111010111000
0111111000010
0110111000101
1000010111100
0000111010001
0001110101001
0010011001001
0110111010011
0111011001001
0000111000011
0001010110011
0010100111111
0100100111100
0101100101000
0110111001101
0111010100101
0111100110101
