0000010111110
0010010110100
0010110111110
0011110110011
0100110110100
0101010111111
0111111001111
0100110101011
0110110100111
0111010101100
0000011001110
0000110110110
0010010110111
0010110011000
0101110101111
0110110110110
0111010110110
0000011100010
0001011010111
0011010110001
0000011000111
0000101010010
0001010110111
0001110100010
0010011001001
0110100110011
0010111010011
0100111010110
0101111010110
1000010101000
0100110111010
0101010100010
0101110011010
0110011001000
0110110100101
0111010001110
0111110011101
1000010001110
0000100110110
0010011010011
0111010110100
1000001000101
0000011000101
0001111001000
0010111001001
0100110011001
0101010110100
0110111010101
0111110011000
0000110110010
0001010011000
0001110100000
0010010111110
0010111010000
0110010011001
0110111001111
0000010101100
0010110111100
0101001101101
0110101010100
0000110101001
0010110110000
0100110110011
0101010101101
0101110010000
0110010101100
0110110100100
1000010101100
0000001100110
0001001010001
0010010101100
0110011000010
0110101001101
0001010000100
0110010100110
0110110100001
0100110100010
0101111011100
0110010110100
0111010011101
0111110010011
1000010010110
0000011001001
0000111000101
0001011000011
0001111111110
0010011011010
0010110011101
0011010100110
0100110110110
0000011010101
0001000110011
0001111101000
0010111100010
0011010111001
0100111010011
1000010110000
0010010101111
0100111001000
0101010111000
0101110100111
0001011011001
0010011110110
0010111110000
0011010101001
0100100110111
0110001010110
0110111001010
0111000110011
0000010110000
0000111011110
0001110101001
0010111000010
0110010101001
0110110101101
0001111001100
0010101000010
0011010010100
0101011010110
0111110110100
0011111000011
0100011001000
0111010111001
0010100111100
0111010111111
1000110101011
0001010111100
0001100000111
0011110110010
0101011000011
0101110100100
1000110101110
0000011110000
0010011100100
0010111100001
0100011001111
1000110101111
0000011001000
0000111010101
0001011000011
0010111001001
0011110010110
0100111001011
0110011001000
0000010110000
0000110101001
0001011001011
0010011000101
0010110000000
0100010110010
0101110110010
0000011010011
0001111011111
0010011011111
0010111100010
0011111000101
0100011010101
0111110100101
1000110011110
0000010110101
0000110110001
0001110010100
0010011001110
0011110010011
0100010111010
0110111000111
0000011001010
0000111000101
0001000100100
0001110110110
0100111001100
0101111110010
0110100100011
1000010101100
0001010101000
0001111100001
0011010100010
0100101001001
0000011010110
0010011000000
0010110100011
0100010100100
1000110110001
0000110110101
0001011000111
0010110110001
0101010110101
0110010110110
0111110110011
0000111001000
0010110111011
0100110111011
0101110101000
0110111011011
0111010110111
0001010101100
0001110110000
0010011010000
0010110101110
0101111000000
0111001001100
1000101101110
0001111000111
0101011011101
0110000011011
0110111110100
1000010101100
0000010010100
0000111000111
0010010011101
0010110111010
0110010110001
0000010111100
0000111000101
0100010011010
0101010111111
