0001011001110
0001100111110
0011010111010
0011110101111
0100111001110
0101010011101
0001010110010
0010011001101
0011011000001
0101011010001
0110111001001
0111110100001
0001010111110
0101010110010
0101111011000
0110000111101
0111010111000
0000110100010
0010010111111
0010111000001
0100010111011
0101110100110
0111010111100
0000011001010
0000100100111
0001000110100
0001111010111
0010011011000
0010110110010
0011110110010
0100011000011
0110010110000
0000111001111
0001010100000
0001110111100
0100010110011
0110010101111
0100110011001
0101010111010
0101110100111
0110010101110
0110110100011
0111010001111
0111110110011
1000010000011
0000010000000
0000110111000
0001011000111
0001110001010
0010111001000
0011010101101
0011111000001
0100010100000
0100110101011
0101010100010
0110011000010
0111110101001
0001110111011
0010111011111
0110110110011
0000111011100
0001110110000
0100111001010
0110110111001
0000010111001
0000111010100
0010110101101
0011011010101
0100110110011
1000010100111
0000010011100
0001111010011
0010010111010
0010110111101
0100010101001
0100110111101
0110011000010
0110111000100
0000010111011
0001010110001
0010110011010
0100110111000
0101110101110
0110010100110
0000011001101
0000111010011
0010111010010
0101110101010
0000000100010
0010010111111
0010111011000
0011010111010
0101010110001
0101111000100
0111010110100
0000111010101
0101011001100
0101110001011
1000010101001
0000100110100
0001011000011
0010110100010
0101010100111
0110111011011
0111110110000
0000011001000
0000111011101
0010111101001
0111010101101
0000010100001
0010010100111
0100000110101
0100111000111
0110111110100
0111010111010
0001111000011
0010011011011
0011110110011
0100100101011
0101001001111
0000111000010
0001010100110
0001110010111
0010110111001
0011110110000
0100010011011
0111110101101
0000100111101
0001000110110
0001111010000
0010111010011
0100111010000
1000010110011
0010011001110
0010111011111
0100100111111
0101101010010
0110111001000
0011110010011
0110000110100
1000110101111
0001111100101
0010010111001
1000110010001
0011110011010
1000110011010
0000010111100
0011010111101
0110110111111
0000010111101
0000111001001
0010010101001
0010111000001
0100110101100
0101111011010
0110011010110
0011010101111
0011110110110
0100010101111
0101010110111
0101110110000
0111011001101
0000111011000
0010011000111
0111010100011
0111111000101
0000111001110
0010011000111
0010111000000
0101010110001
1000110110111
0000010101101
0000110100110
0001011001000
0010010101001
0010110101110
0110010110010
0001011000011
0010011000011
0100111000000
0111110111110
0000011000000
0001011010001
0001111010011
0101110110001
0110010111101
1000000110001
0001010101111
0001110111110
0101111001100
0110011011011
1000010110001
0000110101100
0010011000010
0010110100111
0110010110000
0110110000111
0001010101110
0001111001000
0011111000000
0110110110010
0111111000100
1000010101110
0000010101111
0001111011000
0010011011100
0010110111111
0011010110101
1000111000000
0000111000111
0010000111010
0010101001001
0100010110000
0101010100111
0111011001000
0111111000101
