0000011111001
0001010110011
0011010101111
0110111100001
0000011001100
0000111011000
0001011001101
0001111001010
0010110110100
0011010110001
0001011000000
0011111001101
0101010110001
1000110111001
0000011000110
0010111010101
0011110110111
0101111000011
1000111000100
0000111010111
0001110110100
0010011010000
0101110111001
0111011000001
0010011101110
0100011000111
0101010111101
0000110110101
0010000000011
0010110110011
0100110110001
1000010111010
0000010001100
0000110110011
0001110101011
0010110110000
0011110100001
0100010111101
0100110110111
0110011010001
0110110101111
0000010100101
0010011001011
0010110000000
0100110010100
0110010110011
0110111000011
0000011011010
0000111000000
0001110111010
0010011010010
0010111100101
0011111000000
0100010111100
0111010011100
1000110100100
0000110111111
0010001011101
0010101011000
0001011100000
0010011100111
0101010101000
0101110111100
0110111001010
0111110110110
0000011001000
0001111011101
0011111011001
0100110111101
1000110100101
0000010110000
0000111000011
0001001010110
0001110101111
0010010110010
0010111000011
0100010111110
0100111001111
0101000110011
0101111001101
0110000100011
0111010111110
0000010001110
0001010011110
0001110011101
0010010111001
0110011001001
0010011010101
0010111011010
0011110110110
0101011000001
0101111000111
0110000111100
0111011010010
0010011000011
0010110110000
0101011001001
0111011011010
1000010101100
0000111000000
0001100110111
0010011000011
0100110111110
0101110111011
0000011000111
0000110100101
0010010110101
0010111000001
0110011000011
0111010111100
0000010110111
0001010111111
0001110111001
0010011101111
0100010110110
0101011000010
0110011000001
0111110111100
0000111010111
0001011001101
0010011100000
0011010110101
0101110111110
0110110111001
0000011010100
0001011001101
0001110110110
0010011101000
0011010101111
0011111001100
0010110101000
0101011000000
0101111001000
0111010100101
0001110101110
0010011010000
0110010100011
0110110101000
0010111001110
0110011011110
0111010110001
0111110111101
1000010101001
0000110011110
0001010100101
0101111000011
0110010111100
1000010011010
0000111010101
0001011001011
0011011001011
0110111100111
0111011010111
1000010100101
0000010111001
0001110111110
0010011011001
0010110101000
0011111000100
0100010111000
0100111011001
0000011001101
0001010111010
0001111010001
0010011010110
0010110101010
0011110111010
0001110111111
0010011011011
0110111001000
0111010110000
0000010100001
0000111001100
0010111001101
0100111000010
0101010100111
0110010111001
0001010101111
0001110111110
0011010011111
0100010111110
0110111000011
0111111010000
0001010110100
0101110100100
0110110100101
0000011111001
0001000111101
0100010110100
0100111010101
0010011001000
0010110110000
0111111001100
1000110110110
0000010110111
0010011111001
0100111000100
0101010101000
0110010101010
0110111001100
0000011101011
0001011000010
0010110101000
0011010101011
0011111001010
0111111001001
1000110110111
0010011101001
0110011000101
0111110110010
0010010011011
0100010100101
0100111001000
0101111000110
0110011000010
0111110110001
