0010011001010
0011011000111
0110010111101
0111010111001
0111111000110
1000010111101
0001110101001
0010011011100
0101010100110
0111110110000
1000010110010
0000010101000
0000111000000
0001011001100
0001111000111
0010010100001
0010110101111
0011110111110
0111010101011
0001010101101
0011111000111
0110110110111
0111110101010
0001011100110
0010011111010
0011011010100
0011111001011
0111111010010
1000110010000
0001010100110
0010110101000
0000100110010
0010011011010
0010110010000
0011110100100
0110001001110
0010010111011
0101011001000
0111111010110
1000110101001
0000011001111
0001011000110
0010011000110
0110010010010
0110111100010
0111010111111
0000111000110
0010111000101
0100110101110
0101010100100
0101110011101
0110010011010
0110110111100
0000010100001
0000110110011
0100010100010
0100110110001
0000111011110
0010111100001
0101111000111
1000110100111
0000011010001
0001111011110
0010111001001
1000111000000
0000111100010
0010011000101
0011010101110
0101011010010
0101111001110
0110111001010
0001110110110
0111010101100
0111111100001
1000010101011
0000011001011
0001010101001
0011010111110
0011111010001
0100011001110
0101010110100
0001010111110
0100010111001
0101010110011
0101111000000
0110110110110
0000101000000
0011111000011
0101001001010
0101110111010
0111111001101
0000011001011
0001110101110
0010011001010
0010111001001
0101100110010
0110010101011
0000110101110
0100110110101
0110011000011
0110110111010
0111010100000
0111111100010
1000010100100
0000010001001
0001110111010
0011010111100
0100110101111
0000011001011
0000110110110
0001000110110
0001111001110
0010011010001
0010110101011
0100110100100
0001010111101
0010110011000
0111110111110
0000111001111
0010111001110
0100110111101
0101111000011
0110011001100
0110110101110
0000011000110
0011110111001
0101010110011
0101111010101
0000111001001
0001011001111
0100010101011
0101111000011
0110011000011
0110111010000
0111111001101
0000010111101
0000111000011
0001011000010
0011110110011
0110111011100
0001010100101
0001111011011
0101111010111
0110111001000
1000011000010
0000110111100
0011111001100
0100010111000
0100110111111
0101111001010
0110111000100
1000011001011
0010110100000
0011110101101
0101111011110
0110011000100
0001010101101
0101010101110
0110110100111
0111110110010
0000111001010
0001110101100
0010011000001
0010111000000
0011010111100
0100010110000
0000100110100
0001000110000
0010111010101
0011111001101
0101111000101
0111010010111
1000011000011
0010011100001
0010111001011
0011111010001
0101100111011
0110101010111
0111011000011
0000010111001
0100011001010
0100111001001
0110110011111
0000010101101
0001011000010
0001111000001
0011010110000
0011111000101
0110111001011
0000010111110
0000110110100
0010110010011
0100110101111
0101011000001
0110010101001
0110110111000
1000010110001
0000010110100
0000110000000
0001010010000
0001110100000
0010010111010
0100100111010
0101101000000
0010010100000
0010111001111
0101110111001
0110010110110
0111010111100
0111111000010
0000011001010
0000110101010
0001110110010
0010011000001
0010111010010
0101110111001
