0001110111110
0111111000100
1000010101101
0000111010100
0010010110011
0010110111001
0011110111101
0110011001011
0111010111011
0010011000101
0010111001111
0011110110110
0111110100001
1000110010111
0000010101011
0001011011101
0001110011100
0011010110010
0011110111001
0100010110011
0101001000000
0110000110011
1000010111001
0000111000110
0001010101011
0011110010010
0101111000100
0110011010110
0110111100000
0000111010111
0010010100111
0010111011111
0111111100111
1000110110011
0101010110001
0101110010110
0110010101011
0110110011011
0111111000110
0000011001000
0000110111001
0001010101001
0001110110000
0010011010101
0110010100000
0000010100111
0010011000001
0010111000010
0011110100110
0101010110101
0111011011010
0000111001101
0111010100100
1000010100101
0000010101011
0001010110010
0001110110100
0010011011011
0010110111100
0110010100110
0000011011101
0001011001010
0010110011100
0101010101010
0101110011101
0000010011000
0001111001111
0010011000100
0010111000000
0100010111110
0110011001001
0111010111010
0000011010000
0010010111000
0010110101100
0011010111001
0110010111101
0100110101000
0101010101001
0101110111010
0110010110101
0110110100110
0111010111010
0111110100111
0001111000100
0101010101011
0110111010110
0000111000111
0001010100010
0010010100011
0010111000000
0011010111001
0011110010100
0100010101111
0110110110001
0111110111001
0000011010001
0000110111111
0001111001010
0010010110000
0010110001011
0110010110011
0001010000111
0010011000010
0101010110111
1000010111100
0000011001010
0000111001011
0010110011000
0100010101000
0100110111110
0111111010000
0000110110001
0001010101001
0101010100001
0110110100111
0111111001010
0000010110000
0000110110001
0010001000101
0100111001001
1000010101111
0000010111111
0001110100101
0010010111011
0011110110001
0110111000110
0001111001110
0010110101000
0100010101100
0000010101110
0001111000001
0010010111100
0010111000101
0100110100101
0111010111101
0111111001000
1000110100000
0100110111010
0111010110011
1000010110010
0000011000101
0001111010100
0011010111111
0110000111001
0111000111101
0010010111100
0101010111100
0101110100000
0110010110111
0111011000011
0010010100000
0010110111010
0111110111110
1000110101010
0000010110001
0001110000000
0010010111010
0010110101001
0011010110000
0011110100010
0100010110001
0100110011000
0110011011010
0110110111110
1000010111010
0001011101101
0010010100111
0011011000010
0111010110100
1000110111101
0010100111101
0011011001111
0011110101000
0100010110101
0111111010101
0000110111111
0010010011110
0011010101001
0100010110101
0100111001001
0101110010001
0000010101000
0001011010000
0010111001100
0011010110011
0100111000101
0000011000111
0000110001111
0001111000011
0100010000111
0100111001111
0101110100110
0000110011111
0001010110101
0010110111011
0100111000011
0110011011000
0110110100011
0000010110110
0001011001100
0001111000001
0111011001010
1000010100001
0010010111111
0010110101010
0111010100101
0010111100001
0011010111111
0100011001010
1000110001001
0001011001110
0011011011001
0101110100101
0110110100001
0111011001000
