0010011001100
0101010110011
0110101001010
0111010100111
0000010010011
0000110100111
0001011000010
0001110110000
0010011010010
0010110110111
0011010110011
0011110110011
0110011011001
0000010000111
0010011001100
0010110000001
0110010100101
0001011000111
0001111000001
0010100111001
0011110110111
0000010011110
0000111010011
0010010011010
0010110010101
0011010110111
0011111010000
0100010110100
0111010011101
0000010111101
0001011010000
0010011011111
0010110011011
0011110101111
0000110011110
0001011011110
0100010000000
0100111001111
0101110111010
0110110101000
1000011001110
0000011001110
0000111000101
0001010110111
0001110111100
0011010011111
0100010011101
0001111011000
0011110110000
0100110110000
0110011001011
0000010001110
0001110001101
0010010111011
0010110110111
0011010110011
0011111010101
0100010110010
0100110010001
0110011010010
0110110111011
0000010101010
0001010010011
0001111001000
0000010111011
0001110100010
0010011000110
0011011001101
0101010111000
0101101000111
0111101001001
1000111010010
0000111100001
0001011011101
0001110101010
0010111011000
0100010110100
0110010100100
0000010111100
0000100111100
0010011010001
0010111001101
0011111000101
0111110110100
0010111110110
0101110111110
0110111000101
0111110110001
1000011010101
0000110111010
0101110111011
0110010110001
0111010001111
1000010111101
0001011001110
0101011000001
0101111010111
0110010001001
1000110101111
0000011010100
0000110011000
0001010101000
0011110110111
0110011010101
0110110111110
1000011000011
0000011011011
0010111000101
0011011000001
0011111001100
0100010011100
0101100111010
0110001011000
0110100111001
0111011101110
0000110111100
0001110100000
0010010111010
0110110101010
0010011010101
0101011010100
0101111000011
0110111001111
0111110110011
0000111000000
0001110111011
0010010101100
0010110001111
0100110011100
0110010100111
0000110100110
0010110111100
0100110100000
0101110110110
0001010111011
0101010010111
0101111010101
0110110011110
0001001101000
0001111100010
0010011001000
0010110011111
0011110100100
0101110111101
0110110101101
0111111000011
0001010111011
0010010111110
0011010011010
0101110101111
0110111000010
0111011010100
0001111100111
0010010101001
0010111000011
0011011000001
0101111011000
0110111001010
0111010110111
0101110101100
0110111010110
0111110100010
1000010111010
0000011010101
0001011010000
0010111000100
0011010100111
0011111000011
0101010101010
0010111010111
0100111010110
1000110110110
0000011110000
0000111010101
0010110110011
0011110110000
0101001000001
0101110101011
0001011001100
0101010101110
0110010110110
0111011000000
0000111111100
0001111011101
0010011101000
0101111000111
0111010111100
1000010110000
0100110100000
0101010010100
0110010101001
1000010101010
0001011010010
0001111111110
0010010111101
0111110011110
1000110110101
0000111011011
0001011000110
0101010110101
0111110101101
0000011010110
0010111000011
0011111001001
0100011000110
1000011000101
1000110111000
0000011011101
0000111100000
0010110110110
0110111001010
0111010100110
1000001000000
0001111110111
0010111001101
1000110101100
