0001011010100
0010011100110
0101111010001
0111110101100
1000011001110
0000010111001
0000110001110
0010110010001
0100010111010
0100110101001
0110011000111
0110110111100
0101010110001
0101111001011
0110110111000
0111110111011
0000011100000
0001011011001
0101010101100
0111011000110
1000111000000
0000011001110
0000111010001
0010111000000
0100011001100
0100111100001
0111110111000
1000011000011
0001011001101
0001111000110
0011111010100
0110011000010
0010110101000
0100111011110
0101110111011
0110010111000
0110111011011
0001011111000
0010111010101
0110011001010
0111011011001
1000001000001
1000100110100
0000011010010
0000111001111
0001110111101
0010010110110
0010111000101
0101111010110
0000110101011
0001011000001
0001111000111
0010011010010
0011010110000
0011111001100
0100011000010
0110110101011
0111011001100
0000011010010
0000111001110
0001111011010
0111010111010
1000110110010
0001011010001
0010011101010
0011010100100
0011111010011
0100011001010
0101111000111
0001011010000
0010111010000
0011110110011
0101111001011
0001000110110
0010111001101
1000111010001
0000110111110
0110011011101
0110111000110
1000010111011
0000110111110
0001011001110
0110011011000
0110111000111
1000011000101
0000011101110
0000100110000
0001000110111
0010111111101
0100111000110
0101111001000
0111011010110
1000010110001
0101111011010
0111010110011
0000010110010
0000110101010
0001110101100
0010010111100
0010110110000
0011111001000
0101100101011
0110011010101
0000011000100
0001011010101
0001111101001
0010111000001
0011110111100
0101111000111
0001011001010
0001111011010
0010011001010
0100011100010
0101011011001
0110111010100
0111110111110
1000111000000
0000110111011
0001011010001
0010011011001
0110011001110
0111011000001
0000110111011
0001011011101
0101110101100
0110011011101
0110111001000
0111111001000
0000011001011
0001011010010
0001110111101
0010010110010
0010110100111
0011011000000
0100110111110
0000011100000
0010110101011
0011111100111
0100111010001
1000110100101
0000111010110
0010011000100
0011111011111
0101010110001
0111110111100
1000110100011
0011111000111
0100110110101
0110110101110
0100111001100
0111011001101
1000010101101
0000011001000
0000111001100
0001010101111
0001111001010
0010011000111
0011111001011
0110110111010
0111011001110
0000011001011
0001011000101
0100111001110
0101010110001
0110011001010
0110111010100
1000010101110
0001011001011
0001110110111
0010010111111
0010111000001
0011011000000
0011110111001
0110111011011
0111111010010
0000111001111
0001111010110
0011010111010
0110011011000
0001110111111
0011011010100
0110011000100
0111011010000
0000010011001
0001000110111
0010011010011
0010111000111
0011111010100
0100110111101
0110101001011
0001011001000
0110011100100
0110110110010
0100010111111
0101010101111
0110011001011
0110111001100
0000011101101
0000110000000
0001111001001
0100011010010
0101111000111
0000010110011
0001011001111
0011010101111
0011111100001
0100011000011
0000111001100
0010111001111
0100010111001
0100111001101
0000111011010
0010011000010
0111011011101
1000111000001
