0010011111001
0100111100010
0111011010101
0111110110010
1000011001010
1000110001100
0000101001101
0001010111001
0001110100000
0010010111010
0111110110101
0000010101111
0001101101110
0010111001110
0101110100001
0110111011100
0001001010101
0010010111000
0010110011001
0110010101011
0000010111111
0010001010001
0010100111100
0011110110100
0100010101001
0101010111010
0110111010101
0100110011110
0101010000101
0101110100000
0110010101100
0110110101100
0111010001001
0111110010010
1000010001111
0000010101000
0000110101100
0001110111100
0010011001000
0010110010011
0100010011101
0110011010000
0000110100011
0010111011111
0100010011100
0101110110110
0110111000000
0000010101001
0001011010101
0010010100100
0010111001001
0011010110100
0100110110011
0111010111110
0001011010010
0101011001010
0110110110010
0111110001110
0000110100011
0001011000100
0001110111001
0010010011110
0010110101110
0110010100001
0110110110001
0010011010101
0010111000111
0100110100010
0101010110001
0000010101000
0001010110111
0001111000110
0101111001001
1000011001000
0000010101110
0001110111011
0011110011110
0100111000010
0101011000001
0001000100010
0010011011010
0011010110110
0101011010111
0110100101110
0111011000010
0010110101000
0101111010110
0110011010001
0111110110100
0000011010101
0001001001100
0001110110001
0010010100110
0010110000110
0100010111110
0111010011011
0000010111100
0001110111010
0010110111000
0011111000100
0110111001100
1000010100011
0000110101011
0001011000000
0100010010000
0101011100001
0101110101000
0110010100111
0110110010101
0010110100101
0100110100010
0101111100101
0110010111000
0110111000001
0001010110110
0001110100111
0010010100100
0101010111001
0101110111111
0111110100111
0000111000000
0011110100010
0100111100111
0101011011010
0101111010001
0111010111110
0001110111011
0010100111000
0110110101011
0010011000110
0010111000111
0101010110100
0101110100001
0111010100101
0000010000000
0000110110000
0001011001011
0001111001110
0110010100101
0001010111110
0010111001100
0101010110001
0110010110101
0110110001111
0000011010001
0100111000011
0101011000000
0111110100011
0100110101011
0101111001100
0110110110011
0001010110001
0010011000001
0101110110101
0110010100000
0000010110100
0010110001011
0110111001011
0111010100000
0000010101011
0001111000100
0010011101010
0010111010011
0011110101101
0000010011101
0000111000010
0001011000101
0010111001101
0011010101010
0001011010100
0001111001001
0010011010001
0010111100000
0011010010010
0100011000011
1000110110011
0000010100001
0001111001010
0010011000011
0010110010011
0011110011101
0101111000000
0110010111101
0000110111111
0010011001000
0010110100001
0100110011001
0101110111101
1000010100001
0001011000111
0001110110000
0011110011010
0111110101010
1000110101100
0000011010000
0000110111001
0001010111000
0010010101001
0010111000000
0011010000101
0011110110101
0100011000100
1000110001101
0000011010111
0000110001101
0011110110001
0110011011001
1000010101110
0000010110011
0000110111100
0010111001000
0110110111101
0000110110100
0101010111011
0111010100010
1000010101101
