0001011011010
0010011110101
0011011001101
0100011001101
0101010111111
0111110111001
1000111000000
0001011001001
0001111010110
0010111011010
0011111000100
0110110110000
0001000110010
0100110111001
0101111001001
0001111010111
0111111010101
1000111000000
0000011001110
0001011001000
0011110110110
0100011000101
0100111011111
0111010110110
0111111010101
1000011001010
0000010111110
0001011000001
0001110110001
0010011011000
0010110100101
0110010100010
0000110101100
0001000101010
0001111001010
0010011000101
0100011001010
0100111001001
0101000110101
0101110111011
0111011001110
0001000101011
0010011010101
0010110111011
0100110101101
0101011000001
0101111010010
0111111011110
0000011000000
0010011001011
0100011000000
0111011000100
0000110101101
0001011010000
0010111100011
0011111000011
1000010110011
0000110000000
0010011000111
0010111000111
0100011001111
0100110110110
0101110111111
0000010111001
0010110111110
0100111000010
0110010101000
0000011100000
0001011100000
0010010111000
0010111011011
0011011010010
0001011001111
0010010111101
0101110110111
0111111001100
0001011001100
0101010111101
0111111001101
1000111000100
0000110110010
0001111001111
0010011001101
0011111010101
0110011100010
0110110101011
0101111001101
0111111001110
1000011001111
0000011100000
0001111011010
0011111000000
0111011000000
0000010111000
0000110111111
0001110111001
0010011011010
0010110111100
0011111000011
0100111000000
0110011000010
0000011011111
0010010110111
0010111010000
0101011001111
0110011011011
0110111001001
0111011000100
0111110110100
0001011010010
0010011000011
0101011010001
0101110110110
0110011110000
0110110100010
0000011001000
0001011010110
0001111010010
0010011010100
0010111011010
0011011000001
0101011000111
0000011011111
0010011101111
0010111010001
0011011011100
0100111011000
1000110111001
0000111000110
0010111000110
1000111000111
0001111100011
0011111011011
0110111100000
0111010110100
0101010111101
0110011000100
0001011000001
0001111011001
0100111000000
0101010111000
0110011000110
0110111011111
1000010101101
0000011011011
0000110110011
0001111011000
0011010110101
0101111100001
0110110100101
0000011000111
0010111001100
0011110111001
0110010111010
0110111001100
0001011011011
0001110011110
0010111011001
0011010110100
0011111000110
0100011000100
0000011011110
0000111001001
0001101001101
0010111000011
0100101000010
0101111011111
0111101000100
0000011100000
0001010111011
0001111000001
0011110111100
0100011010111
1000010101100
0000111000101
0001011001110
0010011010100
0100011001101
0110011010001
0111010111101
0000011100011
0010010100001
0011010110001
0011111001001
0111010110110
0101010111111
0101111001101
0110010111111
0110110111101
1000010010110
0000011001110
0101111001001
0110110101111
0000010111001
0000110110101
0001010100100
0001110011110
0011111000100
0100011000101
0101100101100
0001011000111
0001111100010
0011010111111
0111111000010
0000110110101
0100111011001
0101110111000
0110010111100
0110111001000
0111010110100
0111111001000
0000011100011
0010111100000
0100010111000
0100110110011
0101111001011
