0001010110010
0001111001100
0011011010000
0011111000100
0100011000000
0110111010100
0111110110011
1000010111101
0000010101101
0001111001010
0010011110110
0010110110001
0011110111110
0100110110110
1000110111010
0000011010011
0000110111101
0010110001111
0100010111101
0111010111101
0111111000111
0000111001101
0100110101100
0101011010111
0101110111111
1000010110111
0000011011011
0000110101100
0001010110011
0010111010001
0100011100000
1000110110000
0000111010100
0011011000011
0011111000011
0100011010000
0101111000010
0110110111110
0010010111110
0010111000101
0100110100000
0101011010101
0111011000011
0111110111110
0010010111110
0010111000011
0110101000111
1000110110111
0001110110111
0010010110110
0010110111100
0011010111111
0100011011001
0111011000110
0000010110100
0100011011010
0110111000100
0111010111001
0000010101111
0001010110111
0010111010000
0011110101000
0110011001011
0000110111101
0010011000111
0100011011010
0110110101100
1000110110100
0000111001000
0010010110110
0100110111101
0101111000100
0000011010101
0000110100000
0010011011010
0010110111001
0100011001011
0101111001100
0110111001000
1000010101110
0110011000011
0111011001110
0000011010100
0000111101111
0001010111010
0001111101001
0100100110110
0111101000000
1000000110100
0000011011111
0001111010001
0010010110100
0011010110100
0100010101111
0010011011011
0010110110000
0011010111010
0100111001000
0101011001110
0000010101001
0001111000010
0010110110000
0011010110110
0011111000001
0100110111101
0110010111010
0110110110011
0000010110110
0000100110001
0001000111000
0010010100011
0010110110011
0101111001001
0001011010011
0001111011001
0010011011100
0011111001101
0111110101110
1000110101011
0001010101100
0011010100110
0101011001101
0111011001110
1000010110000
0000110111000
0101111010011
0111101011001
0000110101101
0010011011000
0011100110101
0110011000000
0110111010111
0010011010001
0011111001100
0101111000110
0111110110001
1000110111010
0000011000100
0000110111010
0001111011100
0010011000010
0100010111111
0100111010000
0110111000001
0111010111110
1000010100100
0000010111010
0000110011111
0001011000100
0001110110111
0010111000111
0110010101111
0000110101010
0010011001110
0010111000100
0101110111001
0110010111000
0110111001101
0111011001001
0000010000101
0001011000000
0001110000000
0010010011100
0010110011000
0011010111101
0011110101011
0100010101100
0110110110001
0001000101101
0001111010110
0100111010111
0101110110110
0110011000010
0111010110110
1000010111111
0000010111000
0000110111101
0001010100011
0001110111010
0101010110111
0110010101111
0000111010010
0001110110011
0010011000010
0111110110110
0001011010101
0010011000111
0101111000001
0110111001100
0111110111110
0000011010011
0010111011100
0011111001100
0101010111111
0101111010011
0110011000101
0001011000101
0101010110010
0110110100100
0001010110100
0101011100000
0101111000101
1000010111001
0010111100000
0100010111010
1000011000100
0000011111101
0101011010011
0110011001100
0111111001100
1000111010000
0000011110110
0000111100000
0010111000111
0100110110100
1000111000101
