000000100111111111
000000101011111111
000000101111111001
000000110011111100
000000110111111100
000000111111111111
000001000011111111
000001000111111111
000001001111111111
000001010000000010
000001011100000010
000001100100000101
000001101100000010
000011000000000011
000011000100000011
000011010000000001
000011011100000010
000011101000000011
000011110100000001
000011111000000001
000100001000000001
000100010011111101
000100010100000001
000100011000000011
000100011100000011
000100100100000011
000100101000000001
000100110100000001
000100111000000001
000101000000000010
000101100111111100
000110001000000010
000110001100000100
000110010000000010
000110011000000011
000110011100000110
000110100000000011
000110100100000100
000110101000000010
000111000100000001
000111001011111110
000111011111111110
000111100100000001
000111101111111111
000111110000000001
001000000100000001
001000001100000010
001000010100000001
001000011000000010
001000011100000011
001000100000000010
001000100100000010
001001001111111101
001001010111111110
001001011000000010
001010001100000001
001010010011111101
001010011100000001
001010110100000010
001010111000000001
001010111111111111
001011100111111101
001011110011111110
001011110111111101
001011111011111110
001100110000000001
001101111011111101
001110010100000011
001110100000000001
001110110000000011
001111001000000010
001111011000000010
001111101000000010
001111110100000011
010000000000000010
010000010000000011
010000100011111111
010001001111111110
010001110011111110
010001111111111111
010010000011111110
010010001011111101
010010101011111110
010010110111111110
010100000111111101
010100101100000010
010101000000000010
010101101000000001
010101111000000011
010110011111111111
010110110011111111
010111010111111110
010111111111111101
011000010000000001
011000111111111111
011001000111111110
011001001111111111
011010001111111101
011011010100000010
011011101100000010
011100001000000010
011100010111111110
011100100011111110
011100101111111111
011101000111111110
011101100111111111
011101110111111111
011111100111111101
100000001011111110
100001000100000010
100001010011111110
100001010111111101
100001101011111101
100010001011111111
100010011111111110
100010100011111111
100010110111111101
100011101000000011
100011101100000001
100011110000000011
100100000100000010
100100100000000010
100100100111111111
100100101011111110
100100101100000011
100101010111111101
100101011111111101
100101100111111101
100110011011111111
100110101100000011
100111011000000010
100111101000000010
101000010011111111
101000100011111111
101001000100000001
101001010000000001
101001011100000011
101001111011111111
101010001000000010
101010010100000011
101010101111111110
101010111000000011
101011010011111101
101011011000000011
101011011100000010
101011100011111110
101011111111111110
101100011000000010
101100110000000010
101100111000000010
101100111111111101
101101000011111110
101101000100000010
101101010000000011
101101010111111111
101101101011111110
101101101111111110
101101111111111101
101110001111111111
101110111100000011
101111001000000001
101111100011111110
101111101111111100
110000000100000010
110000010000000011
110000100011111101
110000100111111100
110000101111111111
110000110011111110
110000111000000010
110001011011111110
110001011111111111
110001101011111111
110010011100000010
110010100000000001
110010100100000001
110010101011111100
110010101111111111
110010111000000010
110010111111111111
110011000100000010
110011011000000001
110011100100000001
110011110000000100
110100000011111110
110100001000000011
110100001100000001
110100010011111110
110100100100000010
110100110111111110
110100111111111111
110101010011111111
110101101011111110
110101101111111101
110101110100000001
110101111100000001
110110001011111100
110110001100000001
110110101100000010
110110110000000001
110110111100000001
110111010000000001
110111010100000010
110111100011111111
110111100100000010
110111101111111110
110111110011111110
111000001100000001
111000010100000101
111000011111111111
111000101111111110
111000110011111110
111001010000000010
111001011000000011
111001011100000001
111001110000000001
111001110100000010
111001111000000001
111010000100000010
111010010000000010
111010110000000010
111010111111111011
111011000100000001
111011001100000001
111011110011111110
111011110100000100
111011111000000001
111100000100000011
111100001000000001
111100001111111101
111100100011111111
111100110100000011
111100111111111111
111101000011111110
111101000100000010
111101001000000011
111101011100000011
111101100011111111
111101100100000010
111101101011111111
111101101111111110
111110000100000001
111110001000000001
111110110000000001
111110110100000001
111111000100000010
111111010000000010
111111011000000010
000000101000000011
000000110000000001
000000111100000101
000001010000000011
000001011000000011
000001100111111110
000001101011111001
000001101111111110
000001110011111110
000001110111111101
000001111011111101
000001111111111101
000010000111111101
000010001011111100
000010110011111100
000010111111111011
000011000011111101
000011001011111100
000011001111111101
000011010011111011
000011010111111100
000011011011111110
000011011111111101
000011101100000001
000011111100000001
000100000000000001
000100000100000011
000100010000000011
000100010100000010
000100011000000100
000100011100000011
000100100100000011
000100101000000011
000100101100000010
000100111000000001
000100111100000001
000101111111111111
000110000011111110
000110001111111111
000110100011111101
000110101111111110
000110110111111101
000110111011111101
000110111111111101
000111000011111111
000111001011111110
000111100011111101
000111111000000001
001000010100000001
001000011000000010
001000100000000010
001000100100000100
001000101000000011
001000110000000001
001000111000000011
001000111100000011
001001000000000001
001001000100000010
001001001100000011
001001100000000010
001010100011111110
001100101000000001
001101000000000010
001110011100000010
001111101100000001
010000011100000001
010000110111111110
010001010000000010
010101100111111110
010110000100000001
010110011011111110
010111000100000010
010111001000000001
010111001100000001
010111111100000001
011000000000000001
011001100011111110
011001111000000001
011011011011111100
011100001111111110
011100011111111110
011100110011111101
011100111011111111
011101000000000001
011110001111111110
011110011011111111
011110111011111111
011111111100000001
100000001000000001
100000010000000010
100001000000000010
100001100000000001
100001111011111101
100010000111111110
100010011000000011
100010011100000010
100010101111111110
100010110111111111
100010111011111100
100011000100000001
100011001111111101
100011011100000010
100011100011111101
100011100100000011
100011111000000011
100100000100000001
100100011011111110
100100110000000001
100100111000000001
100101000100000011
100101001111111111
100101010111111110
100101101011111110
100110001000000001
100110010011111100
100110011011111111
100110101111111111
100110110111111110
100110111100000010
100111010111111110
100111011011111111
100111101100000010
100111110111111101
101000000011111110
101000000111111100
101000010111111101
101000011011111111
101000100100000001
101000110111111111
101001100000000010
101001110100000001
101001111000000010
101001111111111111
101010000111111110
101010001011111110
101010010000000010
101010011011111101
101010100100000001
101010101011111101
101010101100000001
101010111011111110
101010111100000010
101011000100000001
101011001000000001
101011010011111110
101011010100000001
101011101111111110
101011111011111101
101011111111111101
101100000000000100
101100001011111111
101100001100000001
101100100111111100
101100101000000001
101100110011111111
101101000000000011
101101001011111101
101101001100000110
101101010011111110
101101100000000001
101101100111111101
101101110011111110
101110000111111110
101110001000000010
101110010111111111
101110011011111110
101110111011111101
101111001011111111
101111010000000011
101111011011111110
101111101100000010
101111111011111110
101111111100000010
110000001011111101
110000010011111101
110000100100000101
110000101000000011
110000110000000001
110001001011111101
110001010011111101
110001011100000011
110001100000000010
110001100100000001
110001101011111111
110001110100000010
110001111011111110
110001111111111110
110010000011111110
110010010100000010
110010011100000011
110010100111111111
110010111011111110
110010111111110111
110011001000000001
110011001111111111
110011010011111101
110011011011111101
110100000000000010
110100001100000011
110100010100000110
110100101100000010
110100110011111101
110100110111111111
110100111011111101
110100111100000001
110101000100000001
110101001100000010
110101010100000010
110101011000000011
110101011100000011
110101100011111111
110101101000000011
110101110011111111
110101110111111111
110101111011111111
110101111111111111
110110000011111100
110110001111111111
110110010000000010
110110010100000010
110110100100000010
110110111100000011
110111001111111111
110111010111111110
110111011111111110
110111101011111110
110111111000000001
111000000111111111
111000010011111100
111000010100000011
111000100011111100
111000100100000011
111000110000000010
111000110100000010
111001000111111111
111001001011111010
111001001111111111
111001010011111100
111001011111111111
111001100000000001
111001100111111111
111001110000000010
111001110100000011
111010000111111110
111010001100000010
111010010011111101
111010101011111110
111010110000000010
111010110100000011
111010111100000001
111011000011111101
111011011000000010
111011011100000011
111011100000000011
111011101100000001
111011110100000011
111011111000000101
111011111111111101
111100001011111111
111100001100000011
111100010111111110
111100011111111101
111100100000000011
111100110100000011
111100111000000011
111100111111111110
111101001011111100
111101010000000011
111101010111111110
111101011011111101
111101011111111111
111101100000000001
111101111000000010
111110000000000101
111110011000000010
111110101100000011
111110110000000010
111110111000000010
111111001000000010
111111001100000101
000000101111111101
000000110011111100
000001000000000100
000001000100000011
000001010000000101
000001101100000001
000001110000000010
000001110100000100
000001111000000001
000010000000000001
000010001011111101
000010001100000100
000010010000000011
000010010100000011
000010011000000001
000010011100000001
000010100000000011
000011000100000011
000011001100000001
000011010000000011
000011010100000011
000011011100000010
000011100011111110
000011101011111101
000011110011111100
000011110111111100
000100000011111001
000100000111111010
000100011111111110
000100100111111111
000100101100000010
000100111111111101
000101000011111101
000101000111111101
000101010111111101
000101101011111101
000101101111111100
000101110011111110
000110011011111110
000110100000000001
000110111000000001
000111011111111111
000111111011111111
000111111100000001
001000000100000010
001000001000000011
001000001100000001
001000011100000001
001000100000000010
001000100100000100
001000101100000001
001000111000000010
001000111100000001
001001000000000010
001001000100000001
001001001000000001
001001001100000010
001001111000000010
001010000100000001
001010001011111111
001010011100000001
001010101111111111
001010110000000001
001011011000000010
001011011100000010
001011100100000001
001011101000000001
001011110000000001
001100101111111110
001101101100000011
001110110100000010
001111100100000001
010010011000000001
010010111011111111
010101010100000001
011000111100000001
011001110000000001
011010111011111111
011011100100000010
011110011100000001
011111000000000011
011111101100000010
100000010000000001
100000010100000011
100000011011111110
100000100100000001
100000101000000001
100000110000000010
100000110100000010
100001000000000001
100001001000000001
100001001100000010
100001100100000011
100001110000000010
100010001000000001
100010010011111111
100010011000000011
100010100000000010
100010101111111111
100010110000000001
100010111100000010
100011010000000001
100011100011111111
100011101100000010
100100001100000001
100100010000000001
100100010100000010
100100011011111101
100100110111111111
100100111000000001
100101100111111110
100101101011111111
100101111011111111
100110011111111111
100110100111111110
100110101011111101
100110110000000001
100111000000000011
100111111000000001
100111111111111111
101000001000000001
101000001111111110
101000110100000100
101001000000000011
101001000100000001
101001010100000010
101001011100000001
101001111000000010
101010000100000001
101010011111111111
101010110000000010
101011000111111110
101011010000000010
101011011011111111
101011011111111110
101011100100000010
101011101000000001
101011111011111111
101011111100000010
101100000000000011
101100001111111101
101100100000000010
101100111011111111
101101000000000001
101101000100000010
101101001100000010
101101011000000001
101101011100000001
101101100111111111
101101110011111110
101101111000000010
101110000111111101
101110001111111110
101110101111111111
101110111011111111
101111000000000001
101111001011111111
101111011011111111
101111100000000010
101111111011111011
110000000000000001
110000001111111111
110000010100000011
110000101011111101
110000110111111110
110001000000000011
110001000100000001
110001001111111111
110001010111111111
110001011000000001
110001100011111111
110001111000000010
110010010100000001
110010100000000010
110010111011111111
110010111111111110
110011000000000010
110011000111111111
110011001111111110
110011010011111110
110011011000000010
110011100111111101
110011101011111101
110011110000000010
110100000111111110
110100001000000001
110100010111111111
110100011011111111
110100100011111110
110100110000000010
110100110111111111
110100111100000011
110101001111111101
110101010011111110
110101010100000010
110101011000000010
110101100011111110
110101100111111110
110101101000000011
110101110000000011
110101110100000011
110110000011111110
110110000111111101
110110001111111110
110110011100000011
110110100100000010
110110101100000100
110110110000000001
110110111011111110
110110111111111101
110111000011111110
110111011000000011
110111100111111111
111000000011111111
111000000111111101
111000010100000100
111000011000000001
111000011100000010
111000100100000011
111000110000000001
111000110100000001
111000111011111110
111000111111111101
111001000011111111
111001010011111101
111001011011111110
111001101111111110
111001110000000010
111001111011111100
111010001100000100
111010010000000011
111010011000000010
111010100100000001
111010110011111101
111011001100000011
111011010100000010
111011011111111111
111011100011111111
111011110000000010
111100000011111101
111100000111111101
111100001111111100
111100010111111110
111100011100000001
111100100000000001
111100101000000101
111100101111111110
111100111011111110
111101000011111110
111101000111111110
111101001000000011
111101010011111110
111101011000000011
111101011100000100
111101100111111111
111101110011111111
111101110100000010
111101111100000001
111110000011111110
111110000111111101
111110011111111111
111110100011111110
111110111111111100
111111000111111101
111111010111111110
111111011011111110
000000111011111100
000001001100000001
000001010000000010
000001010100000011
000001011000000011
000001011100000011
000001100000000011
000001100100000001
000001101000000010
000001110000000011
000001110100000011
000010001011111111
000010010011111101
000010010111111110
000010011011111111
000010110100000001
000011000000000001
000011001100000010
000011011100000010
000011110000000010
000011111000000011
000011111100000010
000100000000000001
000100001000000011
000100001100000010
000100010000000010
000100010100000010
000100110011111111
000101001100000001
000101100000000010
000101100100000011
000101101100000010
000101110100000010
000101111000000101
000101111100000100
000110000000000101
000110000100000100
000110001000000011
000110001100000100
000110010000000010
000110010100000010
000110011000000001
000110011100000010
000110100000000001
000110100100000010
000110110000000011
000111011111111100
000111101111111110
000111110111111101
001000110000000010
001000110100000001
001001010111111110
001001011000000001
001001100111111110
001010010000000010
001010011111111101
001011000000000001
001011011000000001
001011100100000010
001101011011111110
001111011111111110
001111100111111111
010000000000000011
010001001100000001
010001101111111110
010010100111111110
010011010011111110
010011110100000010
010100001011111110
010100100000000001
010100101100000010
010101011100000001
010110101011111111
010111000111111111
010111100100000001
010111101111111111
011000000111111111
011000011011111111
011000100111111110
011001001011111110
011001110011111110
011010010011111110
011011010100000001
011011011111111111
011011100000000001
011011100100000010
011011111100000010
011100000111111110
011100011100000001
011101000100000010
011101011100000010
011101100111111110
011101101100000010
011101111000000010
011101111100000011
011110010100000001
011110100100000010
011111111111111110
100000000111111111
100000001011111111
100000010011111101
100000100011111110
100000100111111101
100000111011111111
100001000011111100
100001001011111111
100001001111111111
100001010111111111
100001100011111110
100001111011111111
100010000011111111
100010001011111101
100010001111111101
100010010111111110
100010011111111101
100010100011111110
100010100111111111
100011001100000001
100011110011111111
100100000100000010
100100001111111110
100100011011111111
100100100000000011
100100100100000010
100100101111111111
100101101111111110
100101111100000011
100110000100000001
100110001011111111
100110011100000010
100110100111111111
100110101011111101
100110101111111111
100110110100000010
100110111011111101
100111001000000010
100111010100000001
100111101111111111
100111110000000011
100111110100000001
100111111111111100
101000001111111110
101000010011111101
101000010111111101
101000011000000011
101000011111111110
101000100111111101
101001011111111111
101001100100000001
101010010111111100
101010011011111110
101010011111111111
101010100011111110
101010100100000010
101010111000000010
101010111111111110
101011000000000010
101011000100000001
101011011011111111
101011011111111111
101011100000000001
101011110000000001
101011111100000100
101100001011111110
101100001100000010
101100011100000010
101100100111111101
101100111100000010
101101010111111110
101101100000000001
101101100100000001
101101101011111111
101101101100000100
101101111000000011
101110000011111111
101110010100000001
101110011000000001
101110011111111110
101110101111111110
101110110000000001
101110111000000011
101111000111111110
101111010111111111
101111011111111101
101111100000000010
110000000100000001
110000010111111100
110000100011111101
110000100111111110
110000101100000010
110001000111111110
110001001111111110
110001010100000011
110001011111111111
110001100011111110
110001101000000001
110001111000000010
110010000000000011
110010001100000010
110010010100000001
110010100011111110
110010110011111101
110011001011111110
110011100011111110
110011101111111110
110011110100000001
110011111011111101
110100000100000001
110100010000000010
110100010111111110
110100101000000100
110100101111111101
110100110100000011
110100111000000011
110101000111111111
110101001000000010
110101001100000010
110101010100000011
110101011100000100
110101100100000001
110101110011111110
110101111111111111
110110001011111111
110110010011111110
110110011000000001
110110011100000011
110110110000000100
110110111100000001
110111000011111101
110111001011111111
110111010111111100
110111011011111101
110111011111111111
110111100011111111
110111110111111110
110111111011111110
110111111100000010
111000001100000010
111000010000000001
111000010111111100
111000100011111101
111000100111111110
111000101011111101
111000111000000010
111001000100000010
111001010011111111
111001010111111110
111001101100000010
111001110000000011
111001111011111110
111010000100000010
111010001000000010
111010011100000100
111010100000000011
111010100100000010
111010101100000010
111010110100000011
111010111100000111
111011011011111111
111011011111111111
111011100011111110
111011111100000010
111100000000000001
111100000100000101
111100001000000010
111100011111111101
111100110000000011
111100110111111111
111100111011111101
111101001000000100
111101001111111101
111101010111111111
111101011000000001
111101011100000111
111101100100000011
111101101011111110
111101110000000010
111101111000000010
111101111100000111
111110000100000001
111110001100000010
111110101100000011
111110110000000010
111110111100000010
111111000011111110
111111001000000010
111111010100000001
000001001111111110
000001010011111110
000001010111111101
000001011011111110
000001011111111100
000001100011111110
000001111100000001
000010001011111110
000010001111111110
000010010011111100
000010100100000010
000010101100000010
000010110000000011
000010110100000011
000010111000000011
000010111100000001
000011000000000001
000011001000000001
000011001100000001
000011011000000010
000011011100000010
000011100111111100
000011101011111100
000011101111111100
000011110011111010
000011110111111010
000011111111111100
000100000011111011
000100000111111011
000100001011111010
000100001111111100
000100010011111101
000100010111111110
000100011011111111
000100011111111110
000100110011111100
000101010111111110
000101011111111110
000101110011111101
000101111111111111
000110011100000010
000110111000000011
000111000000000011
000111001100000011
000111010111111111
000111110000000001
000111110111111111
000111111011111011
000111111111111110
001000000011111110
001000000111111101
001000001011111110
001000001111111101
001000010011111101
001000010111111101
001000011011111100
001000011111111111
001000100011111101
001000101011111110
001000101111111100
001000110011111111
001000110111111101
001000111011111111
001000111111111111
001001010011111111
001001100100000010
001011001000000001
001011011100000001
001100011000000010
001111011011111111
001111100011111101
010000010100000010
010000101000000010
010001100100000010
010001110000000010
010001111100000100
010010110100000011
010011011000000001
010011101100000010
010100011111111110
010101111100000001
010110000100000001
010110010100000001
010110101100000010
010111011000000011
011000010100000010
011000111000000010
011001000000000010
011001001000000011
011001010100000010
011001111000000001
011010111011111110
011100000111111111
100000000011111111
100000010011111101
100000100000000011
100000110100000001
100001010100000010
100001100100000011
100001111100000001
100010000000000001
100010110100000010
100011000100000010
100011001000000001
100011010111111110
100011101111111110
100100000011111110
100100001100000001
100100010011111111
100100110011111110
100101000011111110
100101101011111110
100101101100000001
100110100100000001
100111000000000001
100111001011111101
100111001111111110
100111011111111111
100111100011111101
101000000000000001
101000010011111111
101000010100000001
101000011000000010
101000011111111110
101000110000000001
101001000000000001
101001001000000001
101001001100000011
101001101111111110
101001110011111111
101001110111111011
101010000000000010
101010010111111111
101010011000000011
101010110100000010
101010111011111111
101010111111111101
101011000100000001
101011001011111111
101011010111111011
101011011011111101
101011100000000010
101011100111111101
101011101011111110
101011101111111111
101011110000000010
101011111000000011
101100000000000001
101100011111111110
101100100000000011
101100101011111110
101100111011111110
101101000000000001
101101001100000010
101101010000000001
101101010100000001
101101101000000010
101101101100000001
101101110111111111
101110010100000010
101110110011111110
101110111011111101
101111001111111111
101111011100000011
101111100000000010
101111100100000001
110000010100000010
110000011011111110
110000011111111110
110000100000000001
110000101011111110
110000110100000011
110000111100000001
110001000000000001
110001000111111110
110001001000000001
110001001111111101
110001011011111111
110001110000000100
110001110100000010
110001111011111100
110010000000000001
110010010100000010
110010011111111101
110010100011111101
110010101100000001
110010110000000010
110010111111111101
110011000000000101
110011000100000010
110011100000000011
110011100111111111
110011101100000010
110011110100000010
110100001111111110
110100011011111101
110100011111111111
110100101011111101
110100110000000001
110100111100000001
110101001000000001
110101001111111100
110101010011111110
110101010111111111
110101100011111110
110101101000000101
110101110111111110
110101111100000010
110110000000000010
110110001011111111
110110001111111111
110110010011111101
110110010100000001
110110110111111101
110111001000000001
110111001100000011
110111010100000011
110111100000000010
110111100111111110
110111111011111110
111000000100000010
111000001111111110
111000011111111110
111000100011111100
111001000111111111
111001001111111101
111001010011111100
111001010111111110
111001011111111111
111001100000000001
111001100111111110
111001101111111100
111001110100000010
111010000011111101
111010000111111101
111010101000000011
111010110011111111
111010110100000101
111010111000000001
111011000100000011
111011001000000110
111011011000000001
111011111011111101
111011111111111111
111100000011111110
111100001011111111
111100010000000011
111100011100000001
111100110111111101
111100111111111110
111101000111111111
111101001011111010
111101010011111111
111101011111111101
111101100000000010
111101101000000011
111101101100000010
111110000111111111
111110100011111101
111110101100000010
111111000111111111
111111010000000001
111111011000000011
000000110100000010
000001001100000110
000001100011111111
000001101011111111
000001111111111111
000010001011111111
000010001100000001
000010010100000010
000010011000000011
000010011100000001
000010100000000001
000010100100000001
000011001000000001
000011010000000010
000011010100000100
000011100111111101
000011101011111100
000011110111111010
000011111111111101
000100000011111011
000100001011111101
000100011111111101
000100100011111101
000100101011111101
000100110011111100
000100111111111101
000101001011111100
000101001111111100
000101010011111101
000101101011111101
000101101111111110
000110101011111100
000110110011111101
000111000011111101
000111010111111111
000111011000000001
000111110000000010
000111111100000010
001000000100000011
001000001000000100
001000001100000011
001000010000000100
001000010100000010
001000011000000001
001000011100000101
001000100000000011
001000100100000010
001000101000000001
001000101100000010
001000110000000010
001000110100000010
001000111000000010
001000111100000010
001001000000000010
001001000100000010
001001001000000010
001001010000000011
001001011100000010
001010100100000001
001011101011111111
001100110000000001
001101101111111101
001110011111111100
001111001111111100
010000001000000001
010000010000000001
010000100100000001
010001010000000001
010010001011111110
010010010011111111
010010011111111111
010010110111111111
010010111011111111
010011001111111110
010011010011111111
010011011111111110
010011101111111111
010011110011111110
010100100000000001
010100100111111111
010101011111111111
010101100011111111
010101111011111110
010110000011111101
010110000111111110
010110010011111111
010110110011111111
010111000011111111
010111010011111111
010111011111111111
010111100011111111
010111100111111111
010111110111111110
010111111011111111
010111111111111111
011000010011111101
011000101011111110
011001011000000010
011011000111111110
011011011011111111
011011011111111110
011011100011111100
011011101011111111
011011101111111111
011011110011111110
011100001100000010
011100010000000011
011100011100000010
011100100100000011
011100101100000010
011101100111111111
011101110011111110
011101111011111111
011110001011111110
011110001111111111
011110010011111111
011110011011111111
011110011100000011
011110111111111111
011111001011111110
100000100100000001
100000110011111110
100000111000000010
100001001011111111
100001001100000010
100001010011111111
100001011111111110
100001110011111111
100001111000000001
100010010011111101
100010101111111110
100010111000000001
100011010000000001
100011010100000010
100011011111111110
100011100000000001
100011101111111111
100011110100000011
100011111011111111
100100000111111101
100100101000000010
100100111111111111
100101000011111111
100101100100000011
100101101100000001
100110001100000001
100110010011111101
100110111000000001
100111000111111101
100111011111111110
100111100111111111
100111110111111111
101000000011111111
101000010000000010
101000011111111111
101000100000000010
101000110000000010
101000111000000001
101001000011111110
101001001000000010
101001110000000100
101010000100000101
101010010100000010
101010101100000010
101010111011111101
101011001011111101
101011010011111111
101011100000000001
101011100111111111
101011101100000100
101011111000000010
101100000111111110
101100001100000100
101100100000000100
101100100111111101
101100111011111101
101100111100000010
101101001111111110
101101110000000011
101101111011111011
101101111100000001
101110000111111111
101110001000000001
101110010011111110
101110110100000010
101111000000000001
101111100000000011
101111101111111111
101111111111111100
110000000000000001
110000010011111111
110000010100000011
110000011111111110
110000100000000010
110000101011111110
110000110011111110
110001010011111101
110001101000000011
110001110100000010
110001111000000010
110001111100000010
110010000000000001
110010001000000010
110010001111111110
110010010111111100
110010011111111101
110010100111111110
110010110000000010
110010110111111111
110010111011111111
110010111111111110
110011000000000010
110011000100000001
110011001000000001
110011011000000001
110011100000000001
110011100111111110
110011111011111110
110100000000000010
110100001000000001
110100001111111110
110100110011111111
110100110111111111
110100111100000011
110101001100000010
110101010000000010
110101010100000001
110101100011111101
110101100111111101
110101101000000001
110101110111111100
110110000011111101
110110001000000001
110110001111111110
110110100000000011
110110101011111111
110110101100000100
110110111000000001
110110111111111100
110111001000000010
110111001100000010
110111010011111110
110111010100000011
110111011000000001
110111101111111110
110111111011111110
110111111111111111
111000000100000001
111000001011111110
111000010000000101
111000011011111110
111000100011111101
111000101111111111
111000110011111110
111000110111111101
111001000111111111
111001001011111011
111001001111111110
111001010111111101
111001011011111110
111001100000000011
111001101111111110
111010000011111101
111010001011111111
111010010000000001
111010010100000001
111010101000000010
111010110011111111
111010110100000001
111010111000000100
111010111111111110
111011000100000010
111011001000000010
111011001100000010
111011011000000010
111011100000000010
111011101000000011
111011101100000001
111011110100000001
111011111011111011
111100000011111110
111100000111111110
111100001011111101
111100001111111100
111100010111111111
111100100011111111
111100100111111110
111100101011111111
111101000000000001
111101010111111110
111101011000000001
111101011111111110
111101100111111111
111101101000000010
111101110000000010
111101110100000011
111101111000000011
111101111111111110
111110000000000011
111110000111111111
111110001100000010
111110010011111110
111110100111111110
111111000000000101
111111000111111111
000000100000000110
000000100100000011
000000101000000001
000000110000000001
000000110100000100
000001000000000100
000001000100000011
000001001000000011
000001001100000010
000001010000000011
000001010100000011
000001011000000010
000001011100000010
000001100000000010
000001110011111111
000010000111111110
000010001011111010
000010001111111110
000010100100000010
000010101000000010
000010101100000010
000010110000000011
000010110100000010
000010111000000101
000010111100000010
000011000000000011
000011000100000100
000011001000000100
000011001100000101
000011010000000011
000011010100000100
000011011000000010
000011011100000010
000011101111111110
000011110011111110
000011111011111110
000011111111111110
000100110011111111
000101011100000001
000101100100000010
000101111000000001
000110000000000001
000110101011111111
000111000111111101
000111001111111101
000111010111111101
000111101011111110
000111101111111110
000111111011111101
000111111111111100
001000000011111111
001000100100000001
001000101000000001
001000101100000001
001000110000000010
001000110100000001
001000111000000011
001001000000000010
001001001000000001
001001011100000010
001001100100000010
001010011000000001
001010110000000010
001010111100000010
001011000100000001
001011001100000001
001011010100000010
001011011000000011
001011100100000001
001011101000000011
001011110000000010
001011110100000010
001100000000000001
001100001100000010
001100010000000001
001100110011111110
001100111111111111
001101010011111110
010001001100000001
010001011111111111
010001110011111111
010010001011111111
010010011011111111
010011011111111101
010011101000000010
010100100000000010
010100101000000001
010101011011111101
010101111011111110
010110001000000010
010110010100000001
010111011111111110
010111101011111111
010111110111111111
011000101011111101
011001111000000010
011011010000000010
011011100000000010
011100100000000001
011101001000000010
011101100100000011
011101111100000001
011110010100000001
011110011100000010
011110100000000011
100000000011111111
100000001011111111
100000011011111101
100000100111111100
100000110011111111
100001000111111110
100001001011111111
100001011011111111
100001101011111110
100001111011111110
100010001011111101
100010001111111100
100010101011111110
100010101111111101
100010110011111110
100010111011111111
100011110100000011
100100001011111110
100100110111111111
100101000100000010
100101001100000001
100101011000000011
100101100100000001
100101101011111110
100101111011111111
100110001011111110
100110010111111111
100110011000000010
100110110100000010
100111010111111101
100111011011111011
100111111000000001
100111111111111110
101000010011111110
101000010111111101
101000100011111111
101000100111111101
101000101100000001
101000110011111111
101001000111111110
101001001000000001
101001001111111110
101001100011111111
101010000100000001
101010001011111111
101010001100000001
101010010011111110
101011010100000010
101011011111111110
101011100000000011
101011110000000001
101011110111111111
101100000000000010
101100100000000010
101100111011111111
101100111100000010
101101001011111110
101101010100000001
101101011011111111
101101100011111110
101101110100000101
101110000111111111
101110010111111110
101110011000000011
101110100011111110
101110100111111101
101110111000000010
101111001000000001
110000001111111101
110000101000000100
110000111011111111
110000111100000011
110001000000000100
110001001111111010
110001100111111110
110001101011111101
110001110000000010
110001111000000011
110010100100000010
110010101000000011
110010110011111101
110010110111111110
110011001011111111
110011010011111101
110011010100000011
110011100011111101
110011101011111101
110011101111111111
110011110100000011
110011111011111110
110011111111111110
110100000000000010
110100001000000011
110100010111111110
110100101000000001
110100110000000011
110100110100000001
110101001000000001
110101011000000100
110101100000000001
110101100111111110
110101111011111110
110101111111111110
110110000011111100
110110011100000101
110110110000000010
110110111011111111
110110111111111111
110111000011111100
110111001000000010
110111010000000001
110111101100000010
110111110000000001
111000001000000011
111000100011111110
111000101011111110
111000101111111110
111000110111111101
111001000111111101
111001001000000010
111001001111111110
111001010000000001
111001010111111110
111001101111111110
111001110111111011
111010000100000001
111010001000000010
111010011100000100
111010110000000010
111010110100000011
111010111100000110
111011000111111010
111011010100000010
111011011011111110
111011011100000011
111011100011111111
111011100111111101
111011111011111100
111011111100000010
111100001000000010
111100010100000100
111100100000000011
111100110000000011
111100111011111101
111101000111111110
111101001000000001
111101010111111111
111101011000000101
111101011100000101
111101111000000001
111101111100000110
111110010011111101
111110010100000001
111110100011111111
111110110000000010
111111000111111110
000000011011111111
000000101100000001
000000111100000101
000001001000000011
000001001100000011
000001100000000011
000001100100000010
000001101000000001
000001101100000001
000001110000000010
000001111000000011
000001111100000001
000010000000000011
000010000100000001
000010001000000001
000010001100000100
000010010000000011
000010100100000001
000010101011111111
000010101111111110
000010110011111100
000010111011111101
000011000011111111
000011000111111111
000011001011111111
000011010011111111
000011010111111110
000011011111111111
000011101011111101
000011111011111100
000011111111111101
000100000011111101
000100001111111101
000100010100000001
000100011000000001
000100110011111110
000100110111111110
000101011011111101
000101011111111101
000101100011111101
000101101011111101
000101101111111101
000101110111111100
000110000011111110
000110111011111110
000111100000000010
000111101000000011
001000000011111111
001000001111111110
001000011100000010
001000100100000001
001000101000000010
001000101100000011
001000110000000010
001000111000000010
001000111100000011
001001001000000001
001001001100000010
001001011100000001
001001100100000010
001001101000000010
001001101100000001
001001111100000001
001010000000000010
001010000100000010
001010010100000001
001011000000000001
001011010000000001
001011100000000001
001011110000000011
001100100111111111
001100110111111110
001101000100000010
001110101000000010
001111110011111110
010000011111111110
010001100100000001
010011001100000001
010011100000000001
010011101100000010
010100011000000001
010101100011111110
010110111000000001
010111000011111111
010111011111111111
011000010100000010
011000011000000011
011000011100000001
011000100100000001
011000101000000010
011000111100000011
011001010100000011
011010001100000010
011010100000000001
011011011011111101
011011111011111111
011100010011111111
011100111100000010
011101101000000010
011110000100000001
011110101000000011
011111010100000010
011111011000000001
011111111000000001
011111111100000001
100000000000000010
100000001100000001
100000011000000010
100000011100000010
100000101100000001
100000110100000001
100000111000000010
100000111100000001
100001000100000001
100001001100000010
100001010000000010
100001100000000010
100010001111111101
100010010000000001
100010010111111111
100010011011111110
100010101111111111
100010110111111111
100011011100000010
100011100111111110
100011101111111111
100011111111111111
100100000111111100
100100001000000001
100100001111111111
100100010111111110
100100011000000001
100100111111111111
100101010000000010
100101101000000011
100101101100000010
100101110100000010
100110000011111101
100110000100000001
100110001000000011
100110010000000011
100110100100000010
100110110100000001
100110111000000011
100111001000000010
100111010111111101
100111101011111110
101000000011111111
101000001100000001
101000011011111100
101000011100000010
101000101100000010
101000110111111110
101000111011111110
101000111100000001
101001000111111110
101001010111111111
101001011111111110
101001101000000001
101001101100000001
101001110111111110
101010000000000001
101010010000000001
101010010111111100
101010011000000001
101010101011111111
101010101111111110
101010110111111110
101010111000000011
101011000100000001
101011001100000001
101011010000000011
101011011011111110
101011011100000010
101011100100000100
101011101100000011
101011110111111111
101011111011111100
101100000011111101
101100001111111110
101100100100000100
101100101000000100
101100110011111111
101100111011111110
101101001111111101
101101010011111101
101101010100000010
101101100100000100
101101110100000010
101101111011111111
101101111100000010
101110000000000001
101110000100000001
101110100111111110
101110111100000001
101111000111111110
101111001000000001
101111010111111110
101111011111111101
101111100100000100
101111101000000101
101111110011111101
101111110100000001
101111111111111111
110000011111111110
110000101000000001
110000110111111111
110000111000000010
110001000000000010
110001001000000010
110001001111111010
110001010011111101
110001010111111100
110001100011111110
110001101111111111
110010101000000001
110010101111111110
110010111011111110
110011001000000010
110011010111111110
110011100000000100
110011100111111110
110011101011111101
110011101111111100
110011111000000100
110100001100000010
110100010000000010
110100010111111101
110100011011111100
110100011111111111
110100101011111110
110100110011111101
110100111000000011
110101000011111110
110101001000000010
110101001111111101
110101010000000010
110101100111111111
110101101000000010
110101111000000010
110110000100000001
110110001000000100
110110010011111110
110110011011111101
110110100111111101
110110101011111101
110110101111111110
110110111011111110
110110111111111111
110111000011111110
110111001000000001
110111001111111110
110111011000000011
110111011100000001
110111100000000010
111000000000000010
111000010000000011
111000010100000010
111000101011111111
111000110111111110
111000111011111101
111001000111111100
111001001000000110
111001010100000010
111001011011111111
111001100100000010
111001101111111100
111001110111111110
111001111011111110
111010000111111110
111010001011111101
111010001111111111
111010010011111111
111010011000000011
111010100111111011
111010101011111101
111010110011111101
111010111111111110
111011000000000011
111011000111111001
111011011111111111
111011100011111100
111011100111111101
111011101111111101
111100001111111110
111100010011111111
111100011100000001
111100100100000001
111100101000000010
111100101111111110
111100110111111101
111100111000000010
111101001011111111
111101100011111110
111101101111111111
111101110111111111
111101111100000011
111110000111111101
111110011111111110
111110100011111101
111110110100000010
111111001011111111
111111011011111110
000000011100000011
000000100000000010
000000101100000010
000000110100000011
000000111000000010
000001011100000001
000001100011111111
000001111011111110
000001111111111100
000010000011111011
000010000111111101
000010001111111110
000010010011111111
000010010111111111
000010101100000001
000010110000000100
000010110100000011
000010111000000011
000010111100000010
000011000100000010
000011001000000010
000011001100000001
000011010000000010
000011010100000010
000100101011111110
000100101111111110
000100111011111111
000101000000000001
000101001000000010
000101001100000001
000101010100000010
000101011000000010
000101011100000010
000101100100000001
000101101000000001
000101101100000010
000101111000000001
000111101011111101
000111110111111101
000111111111111111
001000000011111111
001000001011111101
001000001111111111
001000011011111110
001000100011111101
001000100111111011
001000101111111101
001000110011111101
001000110111111110
001000111011111101
001000111111111100
001001001011111101
001001100111111110
001010001011111110
001011010011111110
001011101011111110
001100010111111111
001110101111111110
001110110011111111
001111100011111111
010000010111111101
010000101111111101
010000111111111111
010001001011111110
010001100100000010
010011110111111111
010101011011111110
010101110011111110
010110000011111110
010110111111111110
010111011100000001
011000110111111111
011000111111111111
011001000011111111
011001001111111110
011001110011111111
011001110111111110
011010011111111110
011011010000000010
011011011000000001
011100000100000011
011100111111111111
011101001000000011
011101010100000010
011101100100000001
011110100111111110
011111100011111111
011111101011111111
011111111011111101
011111111111111110
100000000011111101
100000000111111101
100000010011111100
100000011111111110
100000100011111110
100000100111111100
100000101111111110
100000110011111110
100000110111111100
100000111011111110
100000111111111110
100001000100000001
100001010011111110
100001100100000001
100010001111111101
100010110100000001
100011110011111111
100011111111111101
100100000000000011
100100001111111110
100100100011111101
100101001111111111
100101011100000010
100101100011111101
100101111111111101
100110000000000011
100110010111111110
100110011011111111
100110011111111111
100110100111111110
100110110011111111
100110111000000001
100111000000000010
100111001011111100
100111011000000001
100111101100000010
100111110011111101
100111110100000001
101000010100000011
101000011000000010
101000011100000001
101000110100000010
101000111000000010
101001001011111101
101001100100000010
101001101011111111
101001110100000011
101001111100000010
101010110000000011
101010110100000001
101010111000000001
101011000011111111
101011000100000010
101011011100000011
101011100100000011
101011101011111100
101011111000000011
101100000011111101
101100000111111101
101100001000000001
101100111000000010
101100111111111110
101101000011111101
101101000111111111
101101010100000001
101101011000000010
101101101000000001
101101101111111110
101110001011111111
101110010000000010
101110100011111110
101111000011111111
101111010000000011
101111010111111111
101111100100000010
101111110000000010
101111110111111110
101111111000000011
101111111100000010
110000001100000010
110000010111111101
110000011100000010
110000100011111111
110000101011111111
110000101111111110
110000110111111110
110000111000000010
110001001100000001
110001011000000011
110001011100000001
110001100100000001
110001101000000010
110001110100000010
110001111100000010
110010100011111111
110010100100000100
110010110000000011
110010110100000001
110010111100000010
110011000100000011
110011001011111110
110011001100000011
110011010000000011
110011010111111110
110011110011111100
110011110100000010
110100000100000010
110100001100000001
110100010000000001
110100101100000001
110100110100000011
110100111111111111
110101000000000001
110101001100000010
110101011011111100
110101100000000011
110101101011111101
110101110000000001
110101110111111100
110110000000000001
110110001100000010
110110011111111110
110110100000000001
110110101000000100
110110101100000100
110110111011111100
110110111100000010
110111010011111100
110111010111111111
110111011000000010
110111100111111111
111000000000000010
111000000111111101
111000001011111101
111000010111111100
111000011111111100
111000101000000001
111000101100000011
111000111000000010
111000111100000011
111001000000000010
111001010011111111
111001011011111111
111001100000000010
111001110011111110
111001110100000011
111001111000000010
111001111100000001
111010001000000010
111010011011111110
111010011100000011
111010100111111111
111010110111111011
111010111100000001
111011000100000001
111011001000000101
111011011000000010
111011101111111111
111011111000000001
111100000111111111
111100010000000010
111100011000000010
111100100011111100
111100100100000001
111100101011111110
111100101100000010
111100111111111100
111101000000000010
111101001011111110
111101011100000110
111101100011111110
111101100100000010
111101110000000100
111101111000000100
111101111111111110
111110000100000101
111110001000000010
111110001100000100
111110011100000001
111110100000000101
111110101000000010
111111000000000011
111111001000000011
111111001100000101
111111010100000001
111111011000000010
000000100111111111
000000101011111101
000000101111111100
000001011100000010
000001100000000010
000001100100000010
000001101100000010
000001111011111111
000011100000000010
000011100100000001
000011101000000010
000011101100000011
000011110000000011
000011110100000001
000100000000000001
000100000100000010
000100001000000001
000100010000000011
000100011000000001
000100110111111011
000101011111111110
000101100011111110
000101100111111101
000101110011111111
000101111011111110
000110001111111110
000110100011111100
000111010100000001
000111111011111111
000111111100000001
001000100000000001
001000100100000001
001010101111111100
001010110011111101
001011100011111101
001100011011111100
001100110011111111
001101000100000011
001101001100000001
001101011000000010
001101011100000001
001101100100000001
001110100100000001
001110110111111110
001111001111111110
001111101111111110
001111111011111110
010000010011111110
010000011011111111
010001000011111111
010001011000000001
010010100011111111
010010101011111110
010011001100000101
010011101000000010
010011110111111110
010100001011111111
010100010111111101
010100111011111110
010101000111111111
010101110011111110
010110010100000001
010110100100000001
010110110100000010
010111010111111110
010111100011111110
011000000100000010
011000010011111110
011000010111111101
011001101111111110
011011100011111101
011100000100000010
011100001011111101
011100010100000001
011100100100000010
011100101011111111
011100101100000011
011101000000000010
011101100011111111
011101100111111110
011101111100000010
011110110011111110
011110110100000010
011111000000000001
011111100111111101
011111101011111111
100000100000000100
100000110000000010
100000110100000001
100001010000000001
100001010100000010
100001011100000010
100001100000000010
100001110100000010
100001111100000010
100010011011111110
100010011100000010
100010100100000001
100010101011111110
100010111011111101
100010111100000100
100011000011111111
100011001011111111
100011010011111111
100011011011111110
100011100000000001
100011101100000001
100011110011111111
100100000111111011
100100001011111111
100100010100000011
100100011100000001
100100101011111101
100100111000000011
100101000100000010
100101010000000001
100101111000000001
100110001000000100
100110010011111110
100110011111111111
100110101000000100
100110110111111100
100110111100000001
100111000111111101
100111001111111110
100111010000000010
100111010100000001
100111011000000100
100111110111111101
100111111111111110
101000000000000001
101000000100000010
101000001100000010
101000010000000001
101000011011111101
101000100111111111
101000101011111110
101000110011111100
101000111100000001
101001000011111111
101001000100000100
101001010111111100
101001011011111110
101001011111111110
101001101111111111
101001110011111110
101001111111111110
101010000000000001
101010001000000010
101010011000000100
101010111011111101
101010111111111111
101011000100000100
101011001011111110
101011010111111101
101011011000000011
101011100100000001
101011110100000011
101011111011111110
101011111111111111
101100000000000010
101100000111111110
101100010100000001
101100100000000011
101100110100000011
101101000000000010
101101100011111110
101101100111111101
101101101111111110
101101110111111110
101101111000000011
101110100100000010
101110101000000011
101110101100000010
101110110100000010
101110111011111101
101111001011111110
101111011000000010
101111100011111111
101111101100000011
110000000000000110
110000000100000001
110000001000000010
110000010011111100
110000010100000011
110000100011111110
110000101011111111
110000101111111110
110000110100000010
110001000011111111
110001010000000101
110001110000000011
110001110111111110
110001111011111110
110010000011111101
110010000111111111
110010001000000011
110010010111111010
110010011100000100
110010101111111110
110010110011111101
110010111000000010
110010111111111010
110011000011111010
110011010000000011
110011010100000010
110011011000000010
110011100100001001
110011101100000011
110011110011111110
110011111111111101
110100000100000100
110100010011111101
110100010100000101
110100011100000101
110100100000000100
110100100100000010
110100101000000001
110100101100000001
110100110000000011
110100110100000001
110101000011111110
110101001011111100
110101011011111111
110101011100000011
110101100000000101
110101101011111111
110101110011111111
110101110111111101
110101111011111110
110101111100000100
110110000000000001
110110000100000001
110110001011111110
110110001100000010
110110101011111011
110110110000000010
110110110100000010
110110111100000100
110111010111111101
110111011011111101
110111100011111101
110111101111111110
110111111011111111
110111111111111110
111000000000000001
111000010000000010
111000011011111100
111000100000000110
111000100111111111
111000101100000010
111000110111111111
111000111100000100
111001000000000001
111001000100000110
111001001000000001
111001001100000001
111001010100000100
111001011000000011
111001100011111101
111001110100000010
111001111000000100
111010000000000001
111010000100000100
111010001011111110
111010001111111111
111010010111111111
111010011011111101
111010011111111111
111010100111111101
111010110111111110
111010111011111101
111011001000000100
111011001111111111
111011100011111101
111011100111111101
111011101011111101
111011101111111001
111011110000000010
111011110111111111
111011111011111111
111100000000000010
111100000100000010
111100001000000010
111100001111111110
111100010000000011
111100010100000010
111100011100000011
111100100111111110
111100110100000100
111100111011111110
111101001000000010
111101010000000100
111101011011111011
111101101011111111
111101101100000011
111101110011111101
111101111011111100
111101111100000010
111110001011111110
111110001111111111
111110010011111110
111110011011111111
111110100011111111
111110101100000010
111110110000000001
111110110100000010
111111000011111101
111111001111111111
111111010111111111
000000100011111110
000000100111111010
000000101011111100
000000101111111011
000000110011111100
000001001011111111
000001011100000010
000001100000000011
000001100100000011
000001101000000110
000001101100000110
000001111000000011
000010000100000010
000010111100000010
000011000100000010
000011010100000010
000011011100000010
000011100000000010
000011100100000001
000011101000000001
000011101100000011
000011110100000010
000011111100000001
000100000000000010
000100001000000010
000100001100000001
000100010011111111
000100010100000010
000100100011111111
000100100100000011
000100110000000001
000100111000000010
000101000011111110
000101100011111110
000101111011111111
000110000011111110
000110000111111110
000110011100000001
000111000000000001
000111101100000001
000111110000000001
000111111100000001
001000000000000011
001000000100000001
001000001000000001
001000001100000011
001000010100000001
001000011000000010
001000011100000010
001001001111111110
001001010100000010
001001100011111110
001001100111111110
001001111111111101
001010000011111110
001010000111111110
001010101111111111
001011001000000001
001011011011111110
001011011111111101
001011100011111101
001011101111111110
001100011100000010
001100100000000010
001100100100000010
001100110000000010
001100111000000010
001101000100000100
001101011000000001
001110010011111110
001110011111111110
001110100011111111
001110111011111101
001110111111111110
001111000011111101
001111000111111110
001111001111111110
001111101011111110
010000010111111110
010000101000000011
010000110011111110
010000111000000010
010000111100000011
010001001000000100
010001010011111111
010001100100000010
010010101011111111
010011101111111101
010011110011111110
010100010000000001
010101000000000010
010101001100000010
010110000100000001
010110011111111111
010110101111111111
010111001000000010
010111010000000001
010111111100000010
011000001111111110
011000101111111110
011000111111111110
011001000011111101
011001110100000010
011001111000000001
011010000100000001
011010001000000001
011011001100000010
011011110111111111
011011111111111101
011100010011111111
011100011011111110
011100011111111110
011100100011111111
011100100111111110
011100101111111110
011101100000000010
011101101000000010
011101111111111101
011110010111111101
011110011111111110
011110100011111101
011110110011111101
011111001111111110
011111010011111101
011111010111111111
011111111011111101
011111111111111110
100000010111111101
100000100111111110
100000101011111101
100000110111111101
100000111011111011
100000111111111101
100001000111111101
100001001111111110
100001010011111101
100001010111111101
100001111111111111
100010000111111111
100010001011111111
100010010000000010
100010011111111111
100010100011111111
100011001100000010
100011110100000010
100011111111111110
100100000000000001
100100100111111110
100100110100000010
100101000000000100
100110001011111110
100110001100000010
100110010000000010
100110010111111100
100110100100000001
100110101100000010
100110110011111111
100110110111111110
100111001111111100
100111011000000010
100111100000000001
100111100100000010
100111101000000010
100111110011111101
101000000000000010
101000001100000010
101000100111111111
101000110011111101
101001001011111110
101001010000000001
101001010100000011
101001100011111101
101001111011111111
101010001000000010
101010010011111101
101010010111111111
101010111000000100
101011000011111101
101011000111111111
101011011100000010
101011101000000010
101011111000000010
101100000011111011
101100011000000010
101100100011111110
101100100100000011
101100110000000010
101100111000000100
101101000011111110
101101000100000001
101101011111111011
101101110111111111
101101111111111100
101110010100000001
101110100011111110
101110111100000100
101111000100000010
101111001000000010
101111001100000001
101111011111111101
101111100011111101
101111101111111110
101111110011111110
101111110111111110
101111111000000011
110000011000000001
110000100111111111
110000101000000010
110000110011111111
110000110100000010
110000111111111110
110001011011111111
110001011100000001
110001100000000001
110001100100000010
110001101000000010
110001101111111110
110010001011111111
110010001111111101
110010100000000011
110010100100000010
110010111111111101
110011000100000010
110011001100000100
110011010100000011
110011011111111100
110011100100000010
110011101011111110
110011101111111110
110011110011111110
110011110111111100
110100000111111111
110100001100000010
110100010111111110
110100011000000100
110100011100000011
110100100000000010
110100110011111101
110100110100000001
110100111111111101
110101001011111110
110101001100000001
110101010111111110
110101011100000011
110101100000000010
110101100111111111
110101101011111010
110101101111111111
110101110011111110
110101110111111100
110101111100000100
110110001100000010
110110010011111111
110110011111111110
110110101111111110
110111000000000101
111000001011111101
111000001100000011
111000010100000011
111000011011111111
111000011100000010
111000101000000010
111000110111111101
111000111000000010
111000111100000110
111001000000000001
111001000100000100
111001001000000010
111001001100000100
111001100011111110
111001100111111110
111001101011111111
111001101100000011
111001110011111111
111001110100000100
111001111000000011
111001111100000010
111010000111111110
111010010011111101
111010011111111100
111010100000000001
111010101000000011
111010101100000010
111010110111111101
111010111111111101
111011110011111100
111100000000000110
111100000100000001
111100010100000010
111100100011111111
111100101000000011
111100101111111101
111100110011111110
111100111000000100
111100111111111110
111101000100000100
111101001000000011
111101001111111111
111101010000000111
111101010100000001
111101011011111101
111101011111111110
111101101011111111
111110000100000100
111110001000000010
111110010100000001
111110011100000100
111110100111111111
111110110000000001
111110111100000011
111111001100000100
111111010100000100
111111011000000101
000000110011111010
000000110111111010
000000111011111101
000000111111111111
000001000011111111
000001001011111100
000001001111111110
000001010011111111
000001010111111101
000001011011111011
000001011111111011
000001100011111001
000001100111111001
000001101011111110
000001101111111010
000001110011111011
000001110111111101
000001111011111011
000010000100000001
000010001111111100
000010010011111110
000010011011111101
000010011111111101
000010101011111110
000010111111111101
000011000011111101
000011000111111101
000011001011111100
000011010111111101
000011011011111111
000011100011111100
000011101111111100
000011110011111100
000011111011111101
000100001000000010
000100010111111101
000100110011111110
000100111111111101
000101001100000001
000101100100000010
000101101000000011
000101101100000010
000101110000000010
000101110100000011
000101111000000011
000101111100000010
000110000100000010
000110011111111101
000111001100000001
000111101000000010
001000000100000010
001000001000000011
001000011000000001
001000011100000011
001001001000000001
001010110000000001
001011110011111111
001100011111111110
001100100111111110
001100101011111111
001101001000000001
001101010100000011
001101110000000001
001101111100000001
001110000100000001
001111000000000001
001111010000000011
001111111100000010
010000000000000001
010000001000000001
010000010000000011
010000011000000010
010001100011111110
010001101011111101
010001111100000010
010010100011111110
010010110000000001
010011011111111101
010100010000000011
010100010100000001
010100011000000001
010101000000000001
010101000100000001
010110011011111111
010111011100000010
011000001000000001
011001000100000001
011001001000000001
011010001111111111
011010111111111111
011100100011111111
011101000100000001
011101010000000010
011101011000000001
011101101100000001
011110011000000001
011110101000000001
011111000000000001
011111111000000001
100000010000000001
100000010111111110
100000100100000011
100000101000000001
100001010111111101
100001100011111101
100001100111111101
100010010011111101
100010011011111111
100010011111111111
100010100111111100
100010110011111101
100010111111111110
100011001011111101
100011001111111110
100011010011111111
100011010111111110
100011011100000011
100011100011111111
100100000011111101
100100010011111101
100100011000000010
100100100000000010
100101001000000010
100101110011111110
100101111100000001
100110000100000011
100110110100000010
100110111011111111
100111000100000001
100111010100000010
100111111000000010
101000000100000001
101000011000000010
101000011111111111
101000110100000010
101001000000000010
101001000100000010
101001101000000001
101001110100000010
101001111100000001
101010000000000011
101010000100000010
101010001000000001
101010001111111111
101010010000000001
101010100100000010
101010110000000001
101011001111111110
101011010011111111
101011011111111111
101011100000000010
101011100111111100
101011110011111110
101100000000000010
101100011011111110
101100100011111110
101100100111111111
101100111100000010
101101010000000010
101101100000000011
101101111100000010
101110000111111110
101110001111111111
101110100111111111
101110110111111110
101110111000000010
101111001000000011
101111011000000010
101111011100000010
101111100000000010
101111101000000100
101111101111111101
101111110000000010
101111111000000011
110000000100000010
110000001000000001
110000001111111101
110000010100000010
110000011000000010
110000100000000010
110000110111111101
110001000011111110
110001000100000010
110001010100000100
110001011111111110
110001101111111101
110001110000000001
110010000000000001
110010011000000001
110010011111111110
110010110011111101
110010110100000100
110010111111111100
110011000111111111
110011010000000010
110011100000000010
110011101011111111
110011101111111111
110011110000000001
110011110100000010
110011111011111111
110011111111111110
110100010111111111
110100011011111110
110100011111111111
110100100111111111
110100101011111100
110100101111111110
110100110000000001
110101001100000011
110101010011111111
110101010100000010
110101011100000011
110101100011111110
110101101000000011
110101110000000011
110101111011111110
110110001111111010
110110011100000011
110110110000000010
110111011011111101
110111100000000001
111000000111111101
111000010011111111
111000011100000011
111000100111111111
111000111011111100
111001010111111111
111001011000000011
111001110100000010
111001111011111011
111010001011111101
111010100100000010
111010101000000011
111010110000000011
111010110100000001
111010111011111100
111011000000000001
111011000111111100
111011011100000011
111011100011111011
111011100100000010
111011101011111111
111011111000000010
111011111111111100
111100000100000001
111100001011111100
111100010111111101
111100100000000100
111100101100000011
111100110100000010
111100111000000001
111101001000000010
111101010000000001
111101010111111100
111101011100000001
111101110000000010
111101110111111101
111101111000000001
111110001000000010
111110010011111110
111110100100000010
111110101011111110
111110101111111111
111111001011111110
111111001100000010
111111010000000001
000000100100000010
000000111100000011
000001000000000011
000001000100000011
000001011000000011
000001110111111111
000010000000000010
000010000111111111
000010010011111101
000010101011111110
000010110111111111
000010111000000001
000011010000000001
000011100011111101
000011101100000010
000011110000000011
000011110100000001
000011111100000001
000100000100000011
000100001000000010
000100010100000001
000100011000000010
000100011100000001
000100100011111111
000100111111111101
000101000111111110
000101001011111101
000101001111111101
000101010011111101
000101010111111101
000101110111111101
000110011000000001
000110111000000100
000111000000000011
000111001100000011
000111010000000010
000111011111111110
000111110111111101
000111111111111100
001000000111111100
001000001011111110
001000010011111101
001000101100000001
001000111000000010
001001000000000001
001001001100000001
001001010000000010
001001010100000001
001001100000000001
001001101100000001
001001110000000010
001001110100000001
001001111100000010
001010000000000010
001010010100000010
001011000111111111
001011100011111110
001011110111111111
001100000000000001
001100101000000001
001100110111111111
001101111000000001
001110101000000010
001110111000000011
001110111100000001
001111001100000010
001111010000000010
001111110011111111
010000000011111111
010000001011111101
010000001111111110
010000010111111111
010000100111111111
010000111111111110
010001001111111110
010001111100000011
010011010100000011
010011011000000001
010011100111111111
010100000100000001
010100011000000001
010101100011111111
010101110011111111
010101110111111100
010101111011111111
010110010011111101
010110100011111111
010110110011111111
010111001000000001
010111100111111110
011010010100000001
011010111111111111
011100000100000010
011100011011111110
011100101100000011
011100110011111111
011101000011111111
011101010000000001
011101010100000010
011101100000000010
011110000100000010
011110110000000010
011111111100000010
100000001000000010
100000001100000010
100000100000000010
100000100111111101
100000101111111110
100001000100000001
100001010000000010
100001010100000011
100001011100000011
100010000000000001
100010001000000011
100010001111111110
100010100111111111
100010101111111101
100011000100000001
100011001100000011
100011010011111111
100011010111111110
100011011000000010
100011011100000010
100011100111111101
100011101100000011
100011111111111111
100100000000000011
100100010011111110
100100100111111110
100100101011111111
100101000000000011
100101000100000100
100101001100000001
100101110100000010
100110000111111111
100110011111111111
100110100111111110
100110101111111110
100110110111111111
100111000011111101
100111010000000010
100111100100000001
100111101100000001
100111111100000010
101000010000000001
101000101111111110
101000110011111110
101001001111111111
101001100000000011
101001100100000010
101001101100000011
101001111000000010
101010000000000001
101010000111111101
101010010011111110
101010010111111110
101010100011111110
101011010100000010
101011101011111111
101011101100000010
101011110100000010
101011111011111101
101011111111111111
101100000100000001
101100001000000001
101100011011111111
101100101000000010
101101000111111111
101101001011111110
101101001111111111
101101011000000001
101101011100000011
101101100000000010
101101110011111110
101101110111111110
101110000011111111
101110000111111011
101110010000000011
101110011011111111
101110011100000001
101110110000000010
101110111100000001
101111000011111111
101111001000000001
101111010000000011
101111010111111111
101111011100000010
101111100000000011
101111100100000011
101111101000000011
101111110111111111
101111111000000010
110000000011111111
110000000111111110
110000010011111110
110000011000000001
110000101000000100
110000110000000011
110000110100000001
110000111111111110
110001000011111110
110001001111111110
110001010111111111
110001101111111111
110001110000000010
110001110111111110
110010001000000001
110010001111111111
110010010111111101
110010011000000011
110010011100000010
110010101000000010
110010101111111111
110010110000000001
110010110100000011
110010111011111110
110011000100000001
110011001111111101
110011011100000001
110011101100000011
110011110000000011
110011111111111110
110100001111111111
110100011011111101
110100101111111100
110101000011111111
110101000100000101
110101001100000010
110101010111111101
110101011100000101
110101100111111100
110101101111111111
110110000011111101
110110000100000010
110110001111111101
110110011011111111
110110011100000011
110110100000000001
110110110000000100
110110110100000011
110110111011111110
110111001111111101
110111010111111101
110111011000000010
111000001000000010
111000001111111110
111000010000000001
111000010100000010
111000100000000001
111000101000000011
111000101100000011
111000110100000011
111000111011111110
111000111100000010
111001000111111110
111001001111111101
111001010011111110
111001101011111011
111001110011111110
111010000111111111
111010001100000100
111010010100000100
111010100111111101
111010110000000001
111010110111111011
111010111011111011
111011000111111101
111011001000000010
111011010111111101
111011011000000100
111011100011111101
111011100111111010
111011111000000011
111100011000000010
111100100100000011
111100101000000001
111100111111111101
111101000011111111
111101001011111011
111101010000000111
111101010111111101
111101011000000010
111101011100000010
111101100011111110
111101100100000001
111101101111111101
111101110011111111
111101110111111101
111101111000000100
111110000000000001
111110001011111111
111110001100000010
111110010000000011
111110011111111110
111110100011111101
111110100111111110
111110101000000011
111110110011111111
111110111111111010
111111001000000100
111111011011111011
000000101111111111
000000110011111111
000000110111111111
000000111011111101
000001010000000001
000001010100000010
000001011000000100
000001011100000100
000001100000000101
000001100100000010
000001101000000010
000001110111111110
000001111100000001
000010011000000011
000010100000000011
000011001000000010
000011010000000001
000011010100000011
000011011000000001
000011011100000011
000100000011111111
000100001011111110
000100001111111011
000100010011111110
000100011111111110
000100100111111101
000100101011111110
000100101111111101
000100110011111100
000100110111111101
000100111011111110
000100111111111110
000101000011111110
000101000111111101
000101001011111110
000101001111111111
000101010011111110
000101010111111110
000101011011111110
000101011111111110
000101100011111100
000101100111111110
000101101011111101
000101110011111110
000101110111111111
000110001000000001
000110100000000001
000110101000000011
000110101100000001
000110110000000010
000110110100000001
000110111000000001
000110111100000001
000111000100000010
000111001000000010
000111001100000001
000111010000000010
000111011000000011
000111101000000001
000111101100000010
000111110000000010
000111111000000010
001000001000000001
001000010100000010
001000011100000001
001001100000000010
001001100100000001
001001101000000010
001001111000000001
001010011000000010
001010111000000011
001011111011111110
001100001111111110
001100010011111110
001100010111111110
001100011011111101
001100100011111110
001100100111111110
001100110011111101
001101010111111110
001110011000000001
001110011100000010
001110101100000001
001110110100000010
001110111000000011
001111010000000001
001111011000000011
001111011100000010
001111101100000001
010001101111111101
010001110011111110
010010001111111110
010010010011111110
010010100011111110
010010100111111110
010011100111111110
010011101111111110
010011110000000001
010100000011111111
010100001111111110
010100100100000010
010100110000000001
010100111000000010
010101000100000001
010101100011111110
010101110011111110
010110001111111110
010110100111111110
010110101111111101
010110110011111110
010110111011111101
010111000011111111
010111000111111110
010111001011111110
010111001111111110
010111010011111111
010111010111111111
010111011011111101
010111011111111110
010111101111111101
010111110011111110
010111111111111110
011001111111111110
011011001100000010
011011100000000001
011100000100000010
011100001011111110
011100011100000010
011100100100000010
011100111100000001
011101010000000001
011101010100000010
011101100000000010
011101100100000010
011101110000000001
011101110100000010
011110000000000010
011110011000000010
011110110000000001
011110110100000010
011111110000000001
011111111000000001
100000101000000010
100000110000000010
100001000100000011
100001001000000010
100001010000000001
100001110100000010
100010001100000001
100010010000000010
100010011000000001
100010101011111110
100010110011111111
100011100000000001
100011101100000010
100011110000000011
100011111011111111
100100101100000001
100101001111111110
100101101000000010
100101110000000001
100101111000000001
100110001000000001
100110011000000001
100110100011111110
100110100111111110
100110110111111111
100111100111111111
100111101000000010
101000010000000001
101000100111111111
101001000100000001
101001010111111110
101001101011111111
101010000111111111
101010010000000001
101010100000000001
101010101111111111
101010110000000001
101010111000000010
101011011000000010
101011100100000010
101011110000000001
101011110100000010
101011111011111111
101100000000000010
101100001000000010
101100100011111101
101100100111111100
101100110100000010
101101001111111110
101101011000000010
101101101000000010
101101111111111110
101110100011111101
101111001000000001
101111001100000011
101111010011111110
101111101000000011
101111110100000010
110000010011111110
110000010111111101
110000100111111110
110001001111111111
110001101111111111
110010000111111111
110010010111111100
110010011100000001
110010100100000001
110010101111111101
110010110100000001
110011000011111101
110011001111111101
110011010000000011
110011100011111101
110011100100000011
110011110100000001
110011111000000001
110100000100000010
110100001100000001
110100010100000001
110100011111111111
110100101111111101
110100111000000011
110101001111111111
110101010000000010
110101010111111100
110101100000000010
110101101000000011
110101111011111111
110101111100000001
110110001011111110
110110011100000001
110110101011111110
110110110000000011
110110111011111111
110110111100000001
110111001111111111
110111011000000001
110111011100000010
110111111011111110
110111111111111110
111000000100000001
111000100000000010
111000110111111110
111000111011111110
111001001011111011
111001001111111111
111001010011111110
111001010111111101
111001101100000100
111001110011111110
111001110111111111
111010001000000010
111010001100000010
111010010000000010
111010010100000010
111010011000000010
111010110111111101
111010111011111111
111010111111111111
111011001011111101
111011111011111110
111100000000000011
111100001111111110
111100011011111110
111100011100000010
111100101000000010
111100111011111110
111101000011111111
111101000100000001
111101001011111110
111101010000000010
111101011011111110
111101011100000010
111101100100000001
111101111100000010
111110100011111110
111110101000000100
111110111111111101
000000100100000010
000000110111111101
000000111011111110
000000111111111101
000001000011111101
000001001011111111
000001001100000001
000001010100000001
000001011000000011
000001011100000001
000001101011111011
000001101111111100
000001110011111011
000001110111111101
000001111011111010
000010001000000001
000010011011111100
000010111011111100
000010111111111111
000011010111111001
000011101000000001
000011110000000011
000011110100000010
000011111100000010
000100001000000011
000100100100000001
000100110100000001
000101000011111111
000101110011111101
000110000100000011
000110001011111101
000110010011111111
000110011111111110
000110101111111110
000111000011111110
000111010000000010
000111010100000010
000111011011111111
000111100100000001
000111101000000001
000111101100000010
001000100011111110
001000100111111101
001001000111111101
001001001111111101
001010000100000010
001010010111111111
001010101100000011
001010110000000010
001010110100000001
001010111000000001
001010111100000010
001011001100000001
001011011100000001
001011111000000010
001100000011111110
001100001111111110
001100010011111111
001100010111111111
001100100111111110
001100110111111110
001100111011111111
001101000111111110
001101001011111111
001101001111111100
001101010011111111
001101010111111110
001101011011111101
001110000000000001
001110100000000001
001110111100000010
001111111000000010
010000100011111111
010001110011111111
010001111011111111
010010000011111110
010011000011111110
010011100011111110
010100011100000010
010100101011111111
010101100011111110
010101101111111101
010101110111111110
010110000011111110
010110010011111111
010110010111111110
010111001111111110
010111010111111101
010111011011111110
011000010100000001
011000101000000010
011000101100000010
011000111100000001
011011011011111110
011011110111111110
011101000000000010
011101100100000011
011101110000000011
011101110100000011
011110010100000011
011110011000000001
011111011111111111
100000010000000010
100000101000000010
100000111000000011
100000111100000011
100001000100000001
100001001000000001
100001010000000001
100001010100000011
100001011000000001
100001011100000001
100001100000000010
100001101000000100
100001110000000001
100001110100000011
100001111100000011
100010001000000010
100010001111111110
100010010000000001
100010011100000001
100011000000000010
100011001100000010
100011010011111110
100100001000000011
100100010111111111
100100100011111110
100100101000000001
100100101100000010
100101011000000001
100101100100000010
100101101000000011
100101101100000001
100101110000000001
100101110111111110
100110100100000001
100110111111111110
100111001011111111
100111100000000001
100111101111111110
100111110000000001
100111110100000001
101000001011111111
101000110000000100
101000110100000001
101001001100000001
101001010111111011
101001100000000001
101001101011111110
101001101100000010
101001110111111111
101010000111111100
101010001100000010
101010100011111011
101010100111111101
101011000000000011
101011000100000011
101011001000000010
101011001100000010
101011010111111111
101011100011111110
101011101000000001
101011111100000010
101100000100000011
101100011000000011
101100100100000100
101101010011111101
101101100100000010
101101101100000001
101101110100000010
101101111111111110
101110001011111110
101110001100000010
101110010011111111
101110100000000100
101110100100000010
101110101011111110
101110110100000001
101111010111111101
101111100011111110
101111100111111110
101111110100000011
101111111011111110
110000000011111111
110000000100000001
110000011100000001
110000101100000010
110000111011111111
110001001100000001
110001011011111110
110001011111111101
110001101011111110
110001110011111110
110001110111111110
110001111000000010
110010000000000010
110010000111111101
110010001000000010
110010010100000001
110010110100000010
110011000111111111
110011001011111101
110011010011111101
110011011011111110
110011100011111110
110011101011111110
110011101111111110
110011110000000010
110100000100000011
110100010011111110
110100010111111101
110100011011111110
110100101111111100
110100111100000010
110101000011111111
110101010000000011
110101010100000010
110101011111111111
110101100100000001
110101101000000001
110101110100000010
110101111100000010
110110000000000001
110110011000000010
110110011100000011
110110111000000010
110110111111111111
110111001100000010
110111010000000011
110111011011111101
110111011111111111
110111101011111111
110111110000000001
110111111100000110
111000010111111110
111000100011111111
111000100111111111
111000110100000011
111000111011111111
111001001111111110
111001010111111110
111001011011111101
111001100100000010
111001110111111110
111010000100000011
111010001011111100
111010010011111110
111010100100000010
111010101011111101
111010110011111101
111010110100000001
111011000100000011
111011001011111101
111011011111111110
111011110011111110
111100000000000010
111100001000000011
111100001100000100
111100100000000010
111100100111111110
111101000000000001
111101010011111111
111101010100000010
111101011111111111
111101100111111111
111101101111111101
111101110000000010
111101111011111110
111101111111111111
111110011111111101
111110101111111101
111110111111111111
111111000111111110
111111001011111110
111111001111111110
000000110111111101
000000111111111101
000001000011111101
000001000111111110
000001001011111110
000001001111111101
000001010111111111
000001100100000100
000001111000000001
000001111100000011
000010000100000011
000010010000000001
000010010100000001
000010111000000001
000010111100000010
000011000000000010
000011000100000001
000011001100000001
000011100011111100
000011101011111011
000011101111111100
000011110011111100
000011110111111100
000011111011111100
000011111111111011
000100000011111010
000100000111111010
000100001011111011
000100001111111100
000100010011111011
000100011011111101
000100100011111101
000100100111111101
000100101011111101
000100101111111110
000100110100000001
000100111000000011
000100111111111111
000101000100000010
000101001000000001
000101001100000001
000101010100000001
000101011100000001
000110001000000010
000110010000000010
000110110000000010
000110110100000001
000110111000000001
000110111100000001
000111001000000010
000111001100000001
000111011000000001
000111100100000001
000111110111111111
000111111011111101
001000000011111100
001000001011111110
001000010011111101
001000010111111101
001000011011111100
001000011111111101
001000100011111101
001000100111111101
001000101011111110
001000110011111110
001000110111111100
001000111011111110
001000111111111100
001001000011111110
001001000111111110
001001001011111110
001001010011111111
001010010100000001
001010101000000001
001011111000000010
001100101011111101
001100111111111110
001101001011111110
001111000100000001
001111001100000010
001111100111111111
001111101000000010
010001101000000001
010110111100000001
010111111000000010
011011000111111110
011011011000000001
011011110000000001
011011111100000010
011100000111111100
011100101000000010
011101010000000010
011101100011111110
011101100100000010
011101110100000010
011111011100000001
100000011111111111
100000101000000001
100001010011111111
100001011111111101
100001101000000010
100010000000000001
100010001111111111
100010011000000001
100010111000000010
100011000011111110
100011001000000010
100011010000000001
100011110111111110
100100000100000010
100100001111111111
100100011000000010
100100111111111110
100101000111111011
100101100011111111
100101110100000001
100110001000000001
100110100011111111
100110101011111110
100111001011111111
100111010011111110
100111011111111110
100111101011111111
100111110100000001
101000001111111111
101000010100000001
101000011000000001
101000110100000011
101001001100000010
101001101111111110
101001110011111100
101001110111111101
101010000000000010
101010001000000010
101010010000000010
101010010100000100
101010101111111111
101011000000000011
101011010100000010
101011100000000010
101011100111111110
101011101000000100
101011101111111111
101011111100000011
101100000000000001
101100000111111100
101100001111111110
101100100111111111
101100110111111111
101100111011111101
101101010000000011
101101101100000001
101101110111111111
101110001011111110
101110001111111110
101110010100000010
101110100000000010
101111101111111101
110000000000000001
110000011011111110
110000100111111001
110000110111111101
110000111011111110
110001001000000100
110001001111111110
110001010011111101
110001011000000011
110001011111111110
110001101011111110
110001110000000010
110001110100000001
110001111000000010
110010000000000101
110010001011111111
110010011111111100
110011000000000100
110011010000000001
110011011000000011
110011100100000011
110011101100000001
110011110011111110
110011111011111110
110100000011111110
110100001011111111
110100001111111110
110100010011111100
110100010111111110
110100011000000001
110100011100000001
110100101011111111
110100111000000010
110100111100000011
110101001111111111
110101010011111100
110101011000000010
110101100011111001
110101100100000001
110101101000000010
110101111111111101
110110000000000010
110110001011111101
110110001100000010
110110011000000101
110110101000000011
110110110111111101
110111000011111111
110111111011111110
110111111100000100
111000001000000001
111000010111111101
111000011011111111
111000100011111001
111000111111111110
111001001111111101
111001010000000010
111001010111111011
111001011000000010
111001101111111111
111001110000000011
111001111011111110
111010000100000011
111010001000000011
111010011011111101
111010110100000101
111010111000000010
111011000000000001
111011000100000111
111011100000000010
111011100100001000
111011101011111111
111011101100000010
111011111011111101
111011111100000010
111100000100000010
111100001011111101
111100001100000010
111100010000000011
111100011100000010
111100100011111110
111100101011111101
111100110000000001
111100110111111110
111100111011111110
111101000111111101
111101011000000011
111101011100000010
111101100000000101
111101101000000011
111101110000000101
111110000111111110
111110001111111101
111110111000000001
111110111100000011
111111000000000001
000000100100000100
000000110100000001
000000111000000011
000000111100000011
000001000000000010
000001001000000011
000001001100000011
000001010000000010
000001010100000001
000001011000000011
000001011100000010
000001110111111110
000001111111111111
000010000011111111
000010000111111110
000010001011111101
000010010000000011
000010010111111101
000010011111111110
000010100011111101
000010100111111110
000010110011111100
000010110111111111
000010111011111100
000011000011111110
000011000111111101
000011010011111101
000011010111111110
000011011011111110
000011100011111111
000011100111111110
000011101011111100
000011101111111111
000011110011111100
000011110111111101
000011111011111100
000011111111111101
000100000011111100
000100000111111010
000100001011111010
000100001111111101
000100010011111101
000100010111111101
000100111000000001
000100111100000010
000101001000000001
000101101011111110
000101111011111101
000110000011111100
000110000111111101
000110001011111101
000110001111111100
000110010011111011
000110010111111110
000110011011111110
000110011111111101
000110100011111101
000110100111111101
000110101011111100
000110101111111110
000110110111111111
000110111011111101
000111101100000010
000111110000000011
000111110100000010
000111111000000010
000111111100000101
001000000000000011
001000000100000010
001000001000000011
001000001100000011
001000010000000011
001000011000000011
001000011100000010
001000100000000010
001000100100000010
001000110100000001
001010010100000001
001011100111111111
001110001100000001
001110010000000001
001110011000000001
001111100100000001
010001000000000001
010010010100000010
010010100100000001
010101101011111110
010110010100000001
010110100100000001
010110101000000001
010111001100000001
010111100100000010
010111111000000010
011011100011111110
011100001000000010
011100001100000010
011100111000000010
011101010111111110
011110111100000001
011111100000000001
100000100111111111
100000101100000001
100000110100000011
100000111000000001
100001010000000011
100001100100000001
100001101100000001
100010001100000001
100010101100000001
100010111000000001
100011011111111111
100011100000000001
100011110100000010
100100000000000011
100100000111111100
100100011100000010
100100110011111110
100100111011111101
100101101000000010
100101110000000001
100101111111111110
100110000011111110
100110000111111111
100110001011111111
100110100011111111
100110110011111110
100111001100000010
100111010111111110
100111011100000010
100111100100000001
100111101111111101
100111110100000011
100111111100000001
101000010100000011
101001010100000011
101001011011111111
101001011111111110
101001100111111110
101001101000000001
101010100000000011
101010100111111111
101010110100000001
101011001000000010
101011001100000010
101011100100000011
101011101100000010
101011111000000001
101100000011111110
101100010011111110
101100010111111111
101100100000000010
101100101111111110
101100110011111110
101101001111111111
101101010100000011
101101011100000011
101101110100000010
101111010111111110
101111011011111111
101111011111111110
101111100100000011
101111110111111101
101111111111111111
110000000111111110
110000010011111110
110000010111111111
110000011100000001
110000100100000001
110000110100000001
110001000100000001
110001010111111110
110001101000000010
110001101100000001
110001110011111111
110001111000000010
110010000011111101
110010000111111111
110010001111111111
110010011100000001
110010100000000011
110010100100000100
110010101111111110
110010111000000010
110010111100000001
110011000011111101
110011001100000010
110011011111111110
110011101111111101
110011110011111110
110011111000000010
110100010000000010
110100011000000010
110100011100000011
110100110011111111
110100111111111110
110101001011111101
110101011011111110
110101100000000010
110101101011111110
110101110011111101
110101111100000010
110110000000000001
110110001000000010
110110001100000011
110110010000000001
110110100000000001
110110100111111101
110110101000000010
110110110011111101
110111000011111110
110111011000000011
110111100011111110
111000101100000001
111000111000000010
111001001000000101
111001001100000010
111001010000000011
111001011000000101
111001011100000001
111001100100000010
111001101000000011
111001101111111111
111001111000000010
111010000111111110
111010001000000001
111010010000000001
111010110011111100
111010110111111111
111010111000000010
111011000011111110
111011001111111110
111011010100000010
111011011111111110
111011100011111101
111011100111111111
111011101000000100
111011111011111101
111100001000000010
111100001111111011
111100010100000010
111100011000000010
111100100011111110
111100110011111111
111100110111111101
111101010011111110
111101010100000010
111101011111111110
111101100011111100
111101111011111110
111110001011111110
111110001111111111
111110011111111111
111110100000000001
111110110011111110
111110111111111111
111111000111111111
111111011011111110
000000100011111111
000000101111111100
000000110011111110
000000110100000001
000000111000000101
000000111100000011
000001000000000100
000001000100000001
000001011000000010
000001100000000011
000001100100000010
000001101000000110
000001101100000101
000001110000000101
000001110100000100
000001111100000001
000010000000000010
000010000111111110
000010001111111110
000010011000000001
000010100100000010
000010101000000001
000010101100000001
000011000000000010
000011000100000011
000011010000000011
000100000011111100
000100000111111110
000100001011111101
000100010011111101
000100100011111100
000100100111111101
000100101011111101
000100110011111110
000100110111111110
000100111111111100
000101000011111110
000101000111111110
000101001011111101
000101001111111100
000101010011111110
000101010111111100
000101011011111110
000101011111111110
000101101011111110
000101101111111100
000101110011111100
000101111011111100
000110000011111100
000110000111111101
000110101100000100
000110110000000101
000110110100000010
000110111000000011
000110111100000011
000111000000000011
000111001000000010
000111001100000011
000111011000000001
000111100000000001
000111101000000001
000111101100000001
000111110000000011
000111110100000010
000111111000000001
000111111100000011
001000000000000010
001000010000000010
001000011100000001
001000100100000010
001001000011111101
001001001011111101
001001011111111110
001001100011111110
001001101011111111
001001110011111111
001001111111111111
001010000011111110
001010000111111110
001010100011111110
001011011100000001
001011111000000101
001011111100000010
001100000000000001
001100010000000010
001101100111111111
001101101011111111
001110110111111111
001111001111111101
001111010111111110
001111011011111101
001111101011111111
010000010100000010
010000100000000001
010001001011111110
010001101100000010
010001111100000001
010010001000000011
010010100000000001
010010110000000010
010011010000000001
010100000000000010
010101010111111110
010111001000000010
010111011000000010
010111101100000001
010111111000000001
011000011100000001
011000110100000001
011001010100000010
011001101100000001
011010111000000001
011011101111111110
011100000111111110
011100100111111110
011100111100000010
011101010111111111
011110011000000011
011110111000000010
011111000000000001
011111000100000001
011111001100000001
011111011100000001
100000100100000001
100001100011111110
100010101000000001
100011100111111110
100011110011111110
100011110111111111
100100010011111111
100100010100000001
100100011100000001
100101101000000001
100101110000000001
100110001011111101
100110011000000010
100110110011111110
100111001000000011
100111011100000001
100111100011111111
100111110100000001
101000001111111111
101000010011111111
101000011011111111
101000100000000010
101000101000000001
101000111011111111
101001001111111111
101001010100000011
101001111100000010
101010000100000001
101010001011111111
101010100111111101
101010110011111110
101010111000000011
101010111111111111
101011011111111101
101011100100000010
101100010011111111
101100100100000010
101100111011111111
101100111100000001
101101001111111111
101101010000000010
101101011011111101
101101100011111111
101101100100000010
101101101100000010
101101111000000010
101110011111111110
101111000000000001
101111010111111100
101111011111111110
110000000011111101
110000010100000010
110000101000000010
110001000000000010
110001001111111110
110001010100000001
110001110011111101
110010000111111110
110010001000000011
110010010111111111
110010011011111111
110010110011111011
110011001100000001
110011010011111111
110011011111111111
110011100100000001
110100001011111110
110100001111111101
110100010111111011
110100011000000001
110100101000000010
110100110000000001
110100111011111111
110101000111111101
110101001000000001
110101010011111111
110101011000000010
110101111011111110
110101111111111111
110110000000000011
110110001011111110
110110011000000010
110110011100000010
110110100000000011
110111011011111111
110111011111111111
111000000100000001
111000001000000011
111000010111111111
111000011000000001
111000011100000010
111000100000000001
111000101111111110
111000111000000100
111001000011111111
111001000100000010
111001001000000100
111001001100000010
111001010000000010
111001011000000001
111001100100000011
111001101011111110
111001101111111110
111001110111111101
111001111000000001
111010001011111111
111010001100000001
111010010011111110
111010010111111110
111010011011111111
111010101100000010
111010110011111111
111010111100000011
111011000011111110
111011000111111110
111011001011111111
111011001100000010
111011010011111110
111011010111111110
111011011000000010
111011011111111110
111011100011111101
111011100100000010
111011101000000001
111011101100000001
111011111100000001
111100001000000010
111100001111111100
111100100111111111
111100101011111110
111100101111111100
111100110111111111
111100111011111011
111100111100000010
111101000111111101
111101001000000010
111101010011111110
111101011011111101
111101011111111111
111101101111111111
111101111100000100
111110001000000011
111110001111111101
111110101011111110
111110111000000011
111111000011111111
111111001011111111
111111010111111101
111111011011111110
000000011100000010
000000100000000100
000000100100000011
000000110100000011
000001100111111110
000001111000000010
000001111100000001
000010100011111110
000011000011111101
000011001111111111
000011010011111111
000011010111111011
000011011011111100
000011011111111100
000011100011111101
000011110011111101
000100001111111111
000101001000000001
000101011000000010
000101101000000001
000101110011111111
000101111011111111
000101111111111111
000110000011111101
000110010000000001
000110100100000010
000110101000000011
000110101100000010
000110110000000001
000110110100000010
000110111000000001
000110111100000001
000111000000000010
000111000100000010
000111001000000001
000111001100000010
000111010000000001
000111010100000001
000111100100000010
000111101000000011
000111101100000001
000111110100000001
000111111000000010
001000011011111110
001000011111111111
001000100111111110
001000101011111101
001000111111111110
001001000111111100
001001001111111111
001001011111111111
001010011011111110
001010011111111111
001011011100000010
001011100100000001
001011110000000010
001100110000000010
001101010100000001
001101100000000010
001101101000000011
001101101100000010
001110000111111110
001110010011111110
001111000100000010
001111101000000001
001111111000000011
001111111100000010
010000110100000001
010001111111111110
010010001111111101
010010100000000010
010100001100000010
010100111111111111
010101010011111110
010101011100000010
010101100000000001
010110001000000010
011000010011111110
011000101100000011
011001010000000010
011010100100000001
011010111000000011
011011000000000001
011011000100000011
011011110000000011
011011111100000010
011100000000000011
011101000011111110
011101000111111100
011101001011111111
011101001111111101
011101010011111111
011101010111111110
011101011011111110
011101101011111110
011101111111111101
011110001011111110
011110010111111111
011110111111111110
011111000111111110
100000010100000001
100000100100000010
100000101000000010
100000110000000010
100000111100000011
100001001000000011
100001010000000010
100001010100000010
100001011000000010
100001011100000001
100001100000000010
100010000000000001
100010001000000010
100010011011111110
100010101000000011
100010101111111110
100010111000000010
100010111100000011
100011000100000001
100011010000000001
100011011000000011
100011100000000001
100011100100000100
100011110011111110
100100010011111100
100100010111111110
100100011011111101
100100101111111110
100100110100000010
100101000011111111
100101000111111101
100101101011111110
100110101100000010
100111011000000011
100111110100000100
101000000100000001
101000011000000010
101000101000000010
101000110000000011
101000111111111110
101001010100000001
101001011100000100
101001101000000011
101001101100000010
101001111011111111
101001111100000001
101010000011111100
101010010100000100
101010011011111111
101010100111111110
101010101100000001
101010110111111110
101010111100000001
101011001000000101
101011010100000001
101011011011111110
101011100011111101
101011100111111110
101011101000000010
101011111100000011
101100000011111110
101100010111111110
101100100100000100
101100101011111111
101100101100000010
101100111000000010
101101000011111101
101101001000000011
101101010011111110
101110000100000011
101110001000000001
101110010011111111
101110011111111110
101110100100000011
101111000100000010
101111001011111011
101111010000000011
101111011011111110
101111011100000010
101111101011111110
101111110100000001
101111111011111111
101111111100000010
110000010011111111
110000100000000011
110000101100000001
110001000000000011
110001000111111110
110001001100000011
110001100111111110
110001111000000010
110001111111111101
110010001000000010
110010001100000010
110010010100000011
110010101011111101
110010101100000010
110011000000000001
110011000111111111
110011001011111110
110011010011111110
110011100000000010
110011101100000010
110011110111111110
110011111100000011
110100000111111110
110100011000000010
110100100111111110
110100110111111110
110100111000000010
110101000111111110
110101001000000001
110101001100000010
110101010011111110
110101010100000100
110101011111111101
110101100011111101
110101110100000110
110101111111111101
110110000000000010
110110000111111110
110110010000000001
110110101111111111
110110111111111110
110111000100000010
110111001100000010
110111010111111110
110111011011111111
110111011100000010
110111101011111101
110111111000000001
110111111100000011
111000010011111101
111000100011111110
111000101011111110
111000110100000101
111000111000000100
111000111111111111
111001001100000011
111001100000000010
111001111000000001
111001111111111111
111010000011111101
111010000100000101
111010010100000011
