00000000
00000110
00010001
00010011
00011000
00011100
00100011
00101000
00101011
00101110
00110010
00111010
00111111
01000010
01000111
01001011
01010100
01011011
01011111
01100110
01101010
01110001
01110110
01111101
10000010
10000101
10001100
10010001
10011000
10011010
10011110
10100011
10101000
10101110
10110100
10111000
10111111
11000101
11001110
11010011
11011000
