00000000
00000110
00001100
00010010
00010110
00011100
00100010
00100111
00101110
00110010
00110111
00111011
01000010
01001010
01010010
01011100
01100001
01100110
01101011
01101110
01110011
01110111
01111001
10000001
10000110
10001010
10010000
10010101
10011000
10011100
10100001
10100101
10101001
10110000
10110101
10111011
10111111
11000111
11001100
11010010
11011000
