00000000
00000110
00001011
00010011
00010111
00011101
00011111
00100100
00101000
00101110
00110101
00111001
00111101
01000001
01000111
01001011
01010001
01010110
01011011
01100001
01101000
01101100
01110011
01110110
01111100
10000000
10000111
10001100
10010001
10011000
10011100
10100000
10100110
10101101
10110011
10110111
10111101
11000101
11001100
11010010
11011000
