00000000
00000111
00001100
00001111
00010010
00011010
00100000
00101001
00110000
00110100
00111001
00111111
01000011
01001000
01001100
01010000
01010110
01011001
01011101
01100101
01101101
01110011
01111010
10000000
10000011
10000111
10001001
10010000
10010110
10011011
10100001
10101000
10101110
10110100
10111001
10111110
11000001
11001000
11001100
11010011
11011000
