00000000
00000100
00001010
00001110
00010011
00011000
00011011
00100000
00101001
00101111
00111000
00111011
01000001
01000110
01010010
01010111
01011110
01100011
01101000
01101110
01110110
01111100
10000010
10000110
10001010
10001101
10001111
10010100
10011010
10100001
10100111
10101011
10110001
10110111
10111010
10111110
11000010
11001000
11001111
11010010
11011000
