00000000
00000111
00001100
00010001
00011000
00011011
00011111
00100100
00101110
00110000
00110111
01000010
01001001
01001110
01010100
01011001
01011110
01100010
01101000
01101100
01110001
01111001
10000001
10000100
10001010
10001111
10010011
10010110
10011100
10100001
10100111
10101010
10110001
10110110
10111011
10111110
11000011
11000111
11001100
11010001
11011000
