00000000
00000101
00001101
00010011
00011000
00100011
00101000
00101100
00110010
00110110
00111011
01000001
01000101
01001010
01001111
01010011
01011001
01011101
01100111
01101110
01110011
01110111
01111100
10000010
10001010
10010010
10010110
10011011
10100001
10100110
10101011
10110000
10110101
10111011
10111111
11000011
11001001
11001101
11010001
11010110
11011000
