00000000
00000110
00001011
00010000
00010100
00011011
00100011
00101010
00101111
00110110
00111010
01000001
01000101
01001010
01001111
01010101
01011001
01100000
01100110
01101101
01110010
01111000
01111110
10000001
10000110
10001011
10010000
10010100
10010111
10011011
10011111
10100100
10101001
10110000
10110111
10111101
11000010
11001011
11010000
11010100
11011000
