00000000
00000100
00001101
00010001
00010101
00011101
00100010
00101001
00101111
00110011
00111101
01000000
01001000
01001110
01010100
01011001
01011110
01100010
01100011
01101010
01110011
01110111
01111100
10000010
10000110
10001010
10010010
10011000
10011111
10100011
10101001
10101100
10110010
10110110
10111100
11000000
11000101
11001001
11001111
11010101
11011000
