00000000
00000110
00001100
00010001
00010111
00100000
00100101
00101101
00110101
00111001
00111100
01000000
01000110
01001110
01010100
01011000
01011111
01100011
01101001
01101101
01110011
01111000
01111111
10000101
10001010
10001101
10010000
10010010
10010101
10011100
10100010
10100110
10101011
10110001
10110101
10111011
11000000
11000101
11001011
11010001
11011000
