00000000
00000111
00001010
00010001
00010100
00011010
00011110
00100110
00101010
00110000
00110001
00111000
00111100
01000100
01001001
01001100
01010010
01011010
01100001
01100101
01101101
01110011
01111000
01111011
01111110
10000100
10001001
10010000
10010111
10011111
10100110
10101110
10110010
10110111
10111101
11000011
11000111
11001010
11001111
11010100
11011000
