00000000
00001000
00001111
00010110
00011010
00100000
00100100
00101001
00101110
00110011
00111000
00111100
01000100
01001011
01001111
01010011
01010111
01011010
01011111
01101000
01110001
01110101
01111010
10000001
10000101
10001010
10001111
10010111
10011110
10100110
10101001
10101110
10110010
10110101
10110111
10111101
11000011
11001001
11001011
11010000
11011000
