00000000
00000101
00001100
00010000
00010101
00011100
00100000
00100101
00101011
00110001
00111010
00111111
01000101
01001001
01001100
01010000
01010101
01011101
01011111
01100111
01101101
01110101
01111010
10000000
10000111
10001100
10010010
10010101
10011000
10100000
10100111
10101111
10110011
10110111
10111110
11000001
11000101
11001010
11001111
11010011
11010111
