00000000
00000101
00001101
00010001
00011000
00011111
00100100
00101000
00101111
00110100
00111001
00111101
01000001
01000110
01001011
01001111
01010010
01010110
01011101
01100010
01100100
01101101
01110001
01110101
01111010
10000001
10000111
10001011
10001111
10010101
10011011
10100001
10101011
10101110
10110001
10110111
10111010
11000010
11000110
11010001
11011000
