00000000
00000110
00001010
00010010
00010111
00011100
00100000
00100010
00100110
00101000
00101111
00110110
00111010
00111111
01000100
01001000
01001101
01010011
01011001
01011101
01100010
01101101
01110010
01110111
01111110
10000101
10001011
10010001
10010100
10011011
10100010
10101000
10101111
10110100
10111100
11000000
11000111
11001111
11010000
11010100
11011000
