00000000
00001000
00001111
00010101
00011010
00100000
00100110
00101100
00110000
00110110
00111010
00111111
01000100
01001000
01010000
01010010
01011001
01011110
01100011
01101011
01110001
01110111
01111100
01111111
10000100
10001001
10001110
10010010
10011000
10011111
10101000
10101111
10110101
10111001
10111110
11000100
11000111
11001011
11001110
11010011
11011000
