00000000
00000100
00001010
00010000
00010011
00011010
00011111
00100101
00101010
00101110
00110101
00111010
00111110
01000100
01001010
01001111
01011010
01100000
01100011
01100110
01101100
01110001
01110101
01111011
01111111
10000011
10001001
10001110
10010101
10011101
10100011
10101000
10101011
10110001
10110110
10111101
11000010
11000111
11001101
11010010
11011000
