00000000
00000110
00001100
00010011
00011010
00100001
00100111
00101110
00110010
00110110
00111001
00111110
01000100
01001010
01001111
01010110
01011100
01100001
01100111
01101101
01110011
01110111
01111110
10000100
10001011
10001111
10010011
10010101
10011001
10011111
10100010
10101010
10101110
10110011
10111000
10111101
11000100
11001000
11001011
11010001
11011000
