00000000
00000011
00001001
00001110
00010111
00011101
00100010
00100111
00101101
00110011
00110110
00111100
01000001
01001000
01001101
01010100
01010111
01100000
01100110
01101010
01110000
01110101
01111010
01111111
10000010
10001010
10001101
10010010
10010111
10011011
10100110
10101011
10110000
10110110
10111011
11000001
11000111
11001100
11001111
11010011
11011000
