00000000
00000100
00001001
00001101
00010010
00010110
00011010
00011111
00100011
00101001
00101101
00110011
00111000
00111110
01000101
01001011
01010000
01010101
01011101
01100011
01101001
01101111
01110010
01110110
01111011
01111101
10000010
10000111
10001101
10010001
10011000
10011111
10100101
10101101
10110110
10111100
11000010
11001001
11001110
11010011
11011000
